{
  "version": "1.0",
  "truncation": null,
  "padding": null,
  "added_tokens": [
    {
      "id": 0,
      "content": "<pad>",
      "single_word": false,
      "lstrip": false,
      "rstrip": false,
      "normalized": false,
      "special": true
    },
    {
      "id": 1,
      "content": "<bos>",
      "single_word": false,
      "lstrip": false,
      "rstrip": false,
      "normalized": false,
      "special": true
    },
    {
      "id": 2,
      "content": "<eos>",
      "single_word": false,
      "lstrip": false,
      "rstrip": false,
      "normalized": false,
      "special": true
    },
    {
      "id": 3,
      "content": "<unk>",
      "single_word": false,
      "lstrip": false,
      "rstrip": false,
      "normalized": false,
      "special": true
    }
  ],
  "normalizer": null,
  "pre_tokenizer": {
    "type": "ByteLevel",
    "add_prefix_space": false,
    "trim_offsets": true,
    "use_regex": true
  },
  "post_processor": null,
  "decoder": {
    "type": "ByteLevel",
    "add_prefix_space": true,
    "trim_offsets": true,
    "use_regex": true
  },
  "model": {
    "type": "BPE",
    "dropout": null,
    "unk_token": "<unk>",
    "continuing_subword_prefix": null,
    "end_of_word_suffix": null,
    "fuse_unk": false,
    "byte_fallback": false,
    "ignore_merges": false,
    "vocab": {
      "<pad>": 0,
      "<bos>": 1,
      "<eos>": 2,
      "<unk>": 3,
      "!": 4,
      "(": 5,
      ")": 6,
      "*": 7,
      ",": 8,
      "-": 9,
      ".": 10,
      "0": 11,
      "1": 12,
      "3": 13,
      ":": 14,
      ";": 15,
      "?": 16,
      "A": 17,
      "B": 18,
      "C": 19,
      "D": 20,
      "E": 21,
      "F": 22,
      "G": 23,
      "H": 24,
      "I": 25,
      "J": 26,
      "K": 27,
      "L": 28,
      "M": 29,
      "N": 30,
      "O": 31,
      "P": 32,
      "Q": 33,
      "R": 34,
      "S": 35,
      "T": 36,
      "U": 37,
      "V": 38,
      "W": 39,
      "X": 40,
      "Y": 41,
      "Z": 42,
      "[": 43,
      "]": 44,
      "_": 45,
      "a": 46,
      "b": 47,
      "c": 48,
      "d": 49,
      "e": 50,
      "f": 51,
      "g": 52,
      "h": 53,
      "i": 54,
      "j": 55,
      "k": 56,
      "l": 57,
      "m": 58,
      "n": 59,
      "o": 60,
      "p": 61,
      "q": 62,
      "r": 63,
      "s": 64,
      "t": 65,
      "u": 66,
      "v": 67,
      "w": 68,
      "x": 69,
      "y": 70,
      "z": 71,
      "¹": 72,
      "Ã": 73,
      "â": 74,
      "Ċ": 75,
      "Ġ": 76,
      "Ģ": 77,
      "Ķ": 78,
      "ĺ": 79,
      "Ļ": 80,
      "ľ": 81,
      "Ŀ": 82,
      "Ġt": 83,
      "he": 84,
      "âĢ": 85,
      "Ġa": 86,
      "Ġs": 87,
      "in": 88,
      "Ġthe": 89,
      "ou": 90,
      "Ġw": 91,
      "it": 92,
      "nd": 93,
      "er": 94,
      "Ġo": 95,
      "âĢľ": 96,
      "âĢĿ": 97,
      "ha": 98,
      "ing": 99,
      "re": 100,
      "ed": 101,
      "Ġb": 102,
      "Ġto": 103,
      "âĢĻ": 104,
      "Ġc": 105,
      "Ġand": 106,
      "id": 107,
      "en": 108,
      "ll": 109,
      "Ġm": 110,
      "ce": 111,
      "Ġl": 112,
      "Ġd": 113,
      "on": 114,
      "Ġf": 115,
      "Ġsa": 116,
      "as": 117,
      "is": 118,
      "Ġhe": 119,
      "Ġit": 120,
      "Ġof": 121,
      "ow": 122,
      "ĠâĢľ": 123,
      "ar": 124,
      "le": 125,
      "or": 126,
      "li": 127,
      "Ġshe": 128,
      "Ġin": 129,
      "at": 130,
      "hat": 131,
      "Ġg": 132,
      "Ġn": 133,
      "Ġsaid": 134,
      "se": 135,
      "you": 136,
      "Ġbe": 137,
      "an": 138,
      ",âĢĿ": 139,
      "ĠA": 140,
      "Ġp": 141,
      "lice": 142,
      "Ġha": 143,
      "ĠĠ": 144,
      "Ġyou": 145,
      "ly": 146,
      "ot": 147,
      "Ġth": 148,
      "ĠI": 149,
      "me": 150,
      "st": 151,
      "ver": 152,
      "Ġwas": 153,
      "Ġon": 154,
      "ld": 155,
      "ĠAlice": 156,
      "ut": 157,
      "Ġh": 158,
      "Ġher": 159,
      "gh": 160,
      "!âĢĿ": 161,
      "Ġe": 162,
      "Ġas": 163,
      "out": 164,
      "es": 165,
      "oo": 166,
      "âĢĶ": 167,
      "ch": 168,
      "ur": 169,
      "Ġthat": 170,
      "Ġso": 171,
      "ent": 172,
      "Ġu": 173,
      "et": 174,
      "ve": 175,
      "ght": 176,
      "ould": 177,
      "Ġr": 178,
      "ith": 179,
      "tle": 180,
      "ad": 181,
      "ke": 182,
      "Ġat": 183,
      "ter": 184,
      "ay": 185,
      "The": 186,
      "Ġwith": 187,
      ".âĢĿ": 188,
      "Ġre": 189,
      "the": 190,
      "ir": 191,
      "ck": 192,
      "Ġhad": 193,
      "very": 194,
      "Ġ_": 195,
      "ee": 196,
      "Ġan": 197,
      "Ġnot": 198,
      "Ġall": 199,
      "ĠM": 200,
      "Ġwh": 201,
      "?âĢĿ": 202,
      "ri": 203,
      "ook": 204,
      "and": 205,
      "lf": 206,
      "Ġk": 207,
      "Ġfor": 208,
      "ain": 209,
      "ea": 210,
      "if": 211,
      "to": 212,
      "ill": 213,
      "th": 214,
      "im": 215,
      "ittle": 216,
      "qu": 217,
      "ĠH": 218,
      "Ġdo": 219,
      "own": 220,
      "ab": 221,
      "ry": 222,
      "Ġup": 223,
      "al": 224,
      "self": 225,
      "ĠD": 226,
      "Ġvery": 227,
      "ro": 228,
      "her": 229,
      "Ġthey": 230,
      "ell": 231,
      "Ġne": 232,
      "ge": 233,
      "Ġout": 234,
      "Ġkn": 235,
      "pp": 236,
      "Ġlittle": 237,
      "ust": 238,
      "Ġsu": 239,
      "ion": 240,
      "Ġli": 241,
      "Ġsh": 242,
      "Ġthis": 243,
      "Ġbut": 244,
      "Ġj": 245,
      "ĠĠĠ": 246,
      "ouse": 247,
      "ite": 248,
      "all": 249,
      "Ġsee": 250,
      "Ġme": 251,
      "ound": 252,
      "een": 253,
      "ere": 254,
      "ore": 255,
      "Ġis": 256,
      "ought": 257,
      "ss": 258,
      "our": 259,
      "Ġlook": 260,
      "Ġdown": 261,
      "Ġhis": 262,
      "Ġqu": 263,
      "ink": 264,
      "ĠT": 265,
      "gain": 266,
      "ard": 267,
      "ĠC": 268,
      "Ġab": 269,
      "Ġbeg": 270,
      "ight": 271,
      "Ġwhat": 272,
      "Ġone": 273,
      "Ġst": 274,
      "Ġwhe": 275,
      "Ġknow": 276,
      "Ġlike": 277,
      "ear": 278,
      "Ġagain": 279,
      "Ġwere": 280,
      "Ġgo": 281,
      "Qu": 282,
      "ime": 283,
      "ock": 284,
      "Ġabout": 285,
      "Ġthem": 286,
      "ice": 287,
      "Wh": 288,
      "Ġwent": 289,
      "Ġcould": 290,
      "Ġno": 291,
      "ome": 292,
      "ĊĊ": 293,
      "ĠQu": 294,
      "Ġwould": 295,
      "Ġor": 296,
      "ong": 297,
      "Ġthought": 298,
      "ame": 299,
      "ĠS": 300,
      "ct": 301,
      "Ġv": 302,
      "Ġoff": 303,
      "Ġsome": 304,
      "che": 305,
      "ind": 306,
      "Ġherself": 307,
      "ĠQueen": 308,
      "Alice": 309,
      "Ġdid": 310,
      "atter": 311,
      "Ġhave": 312,
      "Ġthing": 313,
      "ĠK": 314,
      "om": 315,
      "un": 316,
      "us": 317,
      "Ġif": 318,
      "han": 319,
      "ers": 320,
      "ast": 321,
      "Ġinto": 322,
      "ting": 323,
      "Ġthen": 324,
      "ne": 325,
      "Ġtime": 326,
      "Ġsay": 327,
      "Ġgr": 328,
      "Ġwhen": 329,
      "one": 330,
      "Ġthere": 331,
      "reat": 332,
      "urtle": 333,
      "ther": 334,
      "thing": 335,
      "nder": 336,
      "Ġget": 337,
      "il": 338,
      "ous": 339,
      "Ġwho": 340,
      "ĠKing": 341,
      "ul": 342,
      "ort": 343,
      "ant": 344,
      "Ġyour": 345,
      "ried": 346,
      "are": 347,
      "est": 348,
      "king": 349,
      "Ġmy": 350,
      "ake": 351,
      "ked": 352,
      "ph": 353,
      "ĠG": 354,
      "Ġex": 355,
      "ĠMock": 356,
      "am": 357,
      "uch": 358,
      "Ġ*": 359,
      "Ġcan": 360,
      "You": 361,
      "mb": 362,
      "Ġwor": 363,
      "Ġwhi": 364,
      "ryph": 365,
      "ryphon": 366,
      "ling": 367,
      "Ġsp": 368,
      "Ġhead": 369,
      "ĠHatter": 370,
      "bit": 371,
      "oice": 372,
      "Ġtw": 373,
      "Ġby": 374,
      "Ġits": 375,
      "abbit": 376,
      "ĠTurtle": 377,
      "ĠCat": 378,
      "ure": 379,
      "ish": 380,
      "ĠĠĠĠĠ": 381,
      "Ġany": 382,
      "Ġquite": 383,
      "It": 384,
      "Ġaf": 385,
      "Ġway": 386,
      "Ġmuch": 387,
      "Ġthink": 388,
      "irst": 389,
      "ĠGryphon": 390,
      "ning": 391,
      "ose": 392,
      "Ġfe": 393,
      "Ġrep": 394,
      "Ġbegan": 395,
      "Ġvoice": 396,
      "ig": 397,
      "ĠThe": 398,
      "ack": 399,
      "ra": 400,
      "ĠR": 401,
      "Ġch": 402,
      "Ġmore": 403,
      "Ġdon": 404,
      "âĢĶâĢĿ": 405,
      "dd": 406,
      "way": 407,
      "âĢĺ": 408,
      "ough": 409,
      "Ġtoo": 410,
      "ious": 411,
      "Ġ(": 412,
      "Ġcon": 413,
      "Ġhim": 414,
      "she": 415,
      "ĊĠĠĠ": 416,
      "Ġtheir": 417,
      "ree": 418,
      "Ġhow": 419,
      "ess": 420,
      "ood": 421,
      "led": 422,
      "od": 423,
      "Ġother": 424,
      "Ġgot": 425,
      "Ġpo": 426,
      "ĠRabbit": 427,
      "What": 428,
      "that": 429,
      "Ġal": 430,
      "Ġmad": 431,
      "Ġmust": 432,
      "Ġfirst": 433,
      "ist": 434,
      "orm": 435,
      "fore": 436,
      "hing": 437,
      "uche": 438,
      "Ġare": 439,
      "Ġnow": 440,
      "Ġnever": 441,
      "Ġjust": 442,
      "Ġlooked": 443,
      "uchess": 444,
      "au": 445,
      "Ġsha": 446,
      "erp": 447,
      "Ġonly": 448,
      "Ġround": 449,
      "ec": 450,
      "ven": 451,
      "Ġover": 452,
      "Ġcour": 453,
      "ĠDorm": 454,
      "rom": 455,
      "ĠDormouse": 456,
      "but": 457,
      "pt": 458,
      "ĠF": 459,
      "ĠDuchess": 460,
      "Ġsuch": 461,
      "ace": 462,
      "Ġlar": 463,
      "art": 464,
      "arch": 465,
      "ate": 466,
      "ĠAnd": 467,
      "But": 468,
      "ever": 469,
      "ic": 470,
      "Ġback": 471,
      "Ġcame": 472,
      "Ġbeen": 473,
      "Ġseem": 474,
      "Ġwhich": 475,
      "oot": 476,
      "ĠWh": 477,
      "Ġtur": 478,
      "Ġgreat": 479,
      "Ġshould": 480,
      "Oh": 481,
      "be": 482,
      "ep": 483,
      "ire": 484,
      "Ġar": 485,
      "Ġwell": 486,
      "ence": 487,
      "Ġmin": 488,
      "Ġlong": 489,
      "Ġhere": 490,
      "Ġpl": 491,
      "Ġey": 492,
      "Ġus": 493,
      "Ġafter": 494,
      "ag": 495,
      "ave": 496,
      "ily": 497,
      "row": 498,
      "Ġy": 499,
      "Ġtone": 500,
      "leas": 501,
      "ather": 502,
      "per": 503,
      "xt": 504,
      "ĠL": 505,
      "Ġcur": 506,
      "Ġlast": 507,
      "ance": 508,
      "Ġput": 509,
      "able": 510,
      "of": 511,
      "ull": 512,
      "ĠâĢĺ": 513,
      "ĠĠĠĠ": 514,
      "Ġrem": 515,
      "ĠMarch": 516,
      "ds": 517,
      "op": 518,
      "onder": 519,
      "ĠP": 520,
      "hed": 521,
      "ass": 522,
      "Ġhand": 523,
      "other": 524,
      "ĠHare": 525,
      "oment": 526,
      "end": 527,
      "ves": 528,
      "Ġman": 529,
      "Ġle": 530,
      "Ġfrom": 531,
      "Ġheard": 532,
      "Ġgl": 533,
      "Ġbefore": 534,
      "ury": 535,
      "Ġright": 536,
      "imp": 537,
      "Ġlarge": 538,
      "And": 539,
      "up": 540,
      "Ġke": 541,
      "ide": 542,
      "lied": 543,
      "ation": 544,
      "Ġonce": 545,
      "illar": 546,
      "Ġdoor": 547,
      "Ġtwo": 548,
      "Ġmade": 549,
      "erpillar": 550,
      "ect": 551,
      "Ġcat": 552,
      "ened": 553,
      "Ġdear": 554,
      "Ġfound": 555,
      "Ġminut": 556,
      "get": 557,
      "lt": 558,
      "ned": 559,
      "ving": 560,
      "Ġtal": 561,
      "Ġam": 562,
      "Ġwa": 563,
      "Ġbot": 564,
      "Ġmight": 565,
      "Ġmoment": 566,
      "Ġday": 567,
      "ĠMouse": 568,
      "Ġlooking": 569,
      "mber": 570,
      "ĠCaterpillar": 571,
      "Ġreplied": 572,
      "ody": 573,
      "Ġeyes": 574,
      "ER": 575,
      "ild": 576,
      "old": 577,
      "ru": 578,
      "Ġtell": 579,
      "Ġchan": 580,
      "Ġmake": 581,
      "ons": 582,
      "Ġhur": 583,
      "Ġun": 584,
      "Ġnothing": 585,
      "Ġnear": 586,
      "Ġnext": 587,
      "Ġbegin": 588,
      "his": 589,
      "igh": 590,
      "ĠB": 591,
      "Ġen": 592,
      "Ġtry": 593,
      "Ġthan": 594,
      "Ġadd": 595,
      "Ġwon": 596,
      "Ġcome": 597,
      "Ġfind": 598,
      "Ġthree": 599,
      "Ġunder": 600,
      "Ġupon": 601,
      "Ġthings": 602,
      "Ġseemed": 603,
      "Ġremar": 604,
      "AP": 605,
      "HAP": 606,
      "That": 607,
      "TER": 608,
      "was": 609,
      "Ġaway": 610,
      "iting": 611,
      "Ġcl": 612,
      "ise": 613,
      "les": 614,
      "ory": 615,
      "Ġpleas": 616,
      "Ġevery": 617,
      "Ġjury": 618,
      "ally": 619,
      "Ġmean": 620,
      "arden": 621,
      "Ġgoing": 622,
      "Ġpoor": 623,
      "Ġcourse": 624,
      "HAPTER": 625,
      "How": 626,
      "No": 627,
      "Well": 628,
      "ak": 629,
      "body": 630,
      "eat": 631,
      "ive": 632,
      "ĠE": 633,
      "Ġtre": 634,
      "Ġwonder": 635,
      "Ġgood": 636,
      "Ġgarden": 637,
      "ool": 638,
      "oom": 639,
      "Ġsoon": 640,
      "right": 641,
      "ĠShe": 642,
      "Ġgrow": 643,
      "Ġtook": 644,
      "Ġadded": 645,
      "Of": 646,
      "aw": 647,
      "age": 648,
      "ie": 649,
      "ng": 650,
      "not": 651,
      "pl": 652,
      "ps": 653,
      "Ġtea": 654,
      "Ġsm": 655,
      "ine": 656,
      "Ġwr": 657,
      "Ġwill": 658,
      "Ġfl": 659,
      "Ġsame": 660,
      "Ġrather": 661,
      "There": 662,
      "Ġwithout": 663,
      "Ġread": 664,
      "ures": 665,
      "Ġshall": 666,
      "de": 667,
      "em": 668,
      "um": 669,
      "Ġsort": 670,
      "Ġwish": 671,
      "Ġold": 672,
      "read": 673,
      "Ġpe": 674,
      "Ġanother": 675,
      "Ġgetting": 676,
      "estion": 677,
      "ause": 678,
      "ĠWhite": 679,
      "aid": 680,
      "iz": 681,
      "ost": 682,
      "oke": 683,
      "tain": 684,
      "ved": 685,
      "Ġsl": 686,
      "Ġwe": 687,
      "ity": 688,
      "Ġop": 689,
      "âĢĻâĢĿ": 690,
      "Ġcried": 691,
      "Ġhar": 692,
      "Ġhalf": 693,
      "Ġhapp": 694,
      "member": 695,
      "Ġuse": 696,
      "Ġremember": 697,
      "Ġdoes": 698,
      "Why": 699,
      "Ġwords": 700,
      "Ġfelt": 701,
      "Ġarm": 702,
      "ully": 703,
      "ah": 704,
      "dly": 705,
      "ful": 706,
      "ick": 707,
      "ĠW": 708,
      "Ġtill": 709,
      "oup": 710,
      "red": 711,
      "Ġfan": 712,
      "Ġhear": 713,
      "leep": 714,
      "Ġpu": 715,
      "Ġhouse": 716,
      "Ġeat": 717,
      "Ġever": 718,
      "Ġfeet": 719,
      "Ġchild": 720,
      "iously": 721,
      "ecut": 722,
      "Ġyet": 723,
      "Ġcurious": 724,
      "ble": 725,
      "el": 726,
      "ft": 727,
      "fully": 728,
      "ho": 729,
      "sh": 730,
      "Ġtried": 731,
      "Ġset": 732,
      "Ġwal": 733,
      "ered": 734,
      "Ġbr": 735,
      "Ġcall": 736,
      "Ġfin": 737,
      "Ġface": 738,
      "Ġbec": 739,
      "Ġbet": 740,
      "Ġbeing": 741,
      "Ġpro": 742,
      "Ġend": 743,
      "Ġeven": 744,
      "ently": 745,
      "eep": 746,
      "eak": 747,
      "ĠHow": 748,
      "Ġsure": 749,
      "Ġrepeat": 750,
      "dden": 751,
      "Come": 752,
      "If": 753,
      "So": 754,
      "She": 755,
      "act": 756,
      "ail": 757,
      "dv": 758,
      "for": 759,
      "ged": 760,
      "now": 761,
      "oll": 762,
      "ten": 763,
      "Ġtable": 764,
      "here": 765,
      "Ġsn": 766,
      "Ġside": 767,
      "ertain": 768,
      "haps": 769,
      "ream": 770,
      "Ġbit": 771,
      "Ġcom": 772,
      "Ġfee": 773,
      "ished": 774,
      "Ġgu": 775,
      "Ġpart": 776,
      "Ġear": 777,
      "Ġasked": 778,
      "Then": 779,
      "iff": 780,
      "iful": 781,
      "Ġquestion": 782,
      "ush": 783,
      "Ġwhile": 784,
      "Ġspoke": 785,
      "Ġminute": 786,
      ".)": 787,
      "aut": 788,
      "air": 789,
      "bst": 790,
      "cl": 791,
      "ew": 792,
      "ile": 793,
      "man": 794,
      "so": 795,
      "Ġwat": 796,
      "Ġlo": 797,
      "Ġlow": 798,
      "Ġfar": 799,
      "Ġsat": 800,
      "Ġinter": 801,
      "Ġhast": 802,
      "Ġran": 803,
      "They": 804,
      "Ġsupp": 805,
      "Ġsomething": 806,
      "Ġenough": 807,
      "akes": 808,
      ":âĢĶ": 809,
      "ac": 810,
      "ap": 811,
      "gs": 812,
      "sw": 813,
      "time": 814,
      "what": 815,
      "hen": 816,
      "Ġair": 817,
      "Ġsit": 818,
      "Ġsil": 819,
      "erhaps": 820,
      "ress": 821,
      "Ġcro": 822,
      "Ġcertain": 823,
      "idea": 824,
      "Ġless": 825,
      "Ġlist": 826,
      "Ġdiff": 827,
      "Ġfoot": 828,
      "Ġhigh": 829,
      "Ġel": 830,
      "urp": 831,
      "Ġang": 832,
      "eal": 833,
      "ife": 834,
      "aby": 835,
      "pped": 836,
      "Ġsudden": 837,
      "Ġexecut": 838,
      "Ġanything": 839,
      "beg": 840,
      "Ġplay": 841,
      "Ġleft": 842,
      "Ġhastily": 843,
      "_,âĢĿ": 844,
      "ach": 845,
      "bb": 846,
      "dge": 847,
      "ness": 848,
      "oin": 849,
      "ond": 850,
      "oes": 851,
      "rough": 852,
      "with": 853,
      "xiously": 854,
      "zz": 855,
      "Ġought": 856,
      "Ġtri": 857,
      "Ġtake": 858,
      "Ġsw": 859,
      "Ġseen": 860,
      "inah": 861,
      "oud": 862,
      "ited": 863,
      "ren": 864,
      "ret": 865,
      "Ġmor": 866,
      "Ġdone": 867,
      "Ġinde": 868,
      "Ġgave": 869,
      "your": 870,
      "ĠIt": 871,
      "outh": 872,
      "Ġknew": 873,
      "Ġdidn": 874,
      "raw": 875,
      "Ġturned": 876,
      "gether": 877,
      "Ġtalk": 878,
      "Ġboth": 879,
      "ĠBill": 880,
      "Ġsmall": 881,
      "ump": 882,
      "Ġdoesn": 883,
      "Ġbetter": 884,
      "ollow": 885,
      "Ġindeed": 886,
      "Not": 887,
      "This": 888,
      "app": 889,
      "aking": 890,
      "cour": 891,
      "fus": 892,
      "hind": 893,
      "ich": 894,
      "little": 895,
      "sation": 896,
      "said": 897,
      "Ġidea": 898,
      "head": 899,
      "Ġsiz": 900,
      "Ġwant": 901,
      "Ġbus": 902,
      "Ġcook": 903,
      "idly": 904,
      "Ġmay": 905,
      "Ġmouse": 906,
      "Ġmouth": 907,
      "Ġlea": 908,
      "Ġdance": 909,
      "Ġfollow": 910,
      "Ġsaw": 911,
      "Ġitself": 912,
      "lie": 913,
      "Ġgame": 914,
      "Ġgone": 915,
      "Ġru": 916,
      "Ġroom": 917,
      "they": 918,
      "eez": 919,
      "ĠMa": 920,
      "quet": 921,
      "ears": 922,
      "Who": 923,
      "ĊĊĊĊ": 924,
      "Ġwhole": 925,
      "ult": 926,
      "ways": 927,
      "Ġcont": 928,
      "odo": 929,
      "Ġcourt": 930,
      "ople": 931,
      "Ġtalking": 932,
      "Ġtrying": 933,
      "Ġremark": 934,
      "Ġclose": 935,
      "plain": 936,
      "Ġhappen": 937,
      "As": 938,
      "CHAPTER": 939,
      "He": 940,
      "Now": 941,
      "Yes": 942,
      "eer": 943,
      "io": 944,
      "ige": 945,
      "iers": 946,
      "jest": 947,
      "no": 948,
      "wh": 949,
      "ying": 950,
      "ĠO": 951,
      "Ġimp": 952,
      "Ġac": 953,
      "Ġadv": 954,
      "Ġsc": 955,
      "Ġsound": 956,
      "ither": 957,
      "âĢľ_": 958,
      "Ġbaby": 959,
      "Ġcreat": 960,
      "idd": 961,
      "Ġlet": 962,
      "Ġlear": 963,
      "Ġdire": 964,
      "Ġname": 965,
      "Ġbeaut": 966,
      "Ġpass": 967,
      "Ġperhaps": 968,
      "Ġask": 969,
      "Ġwhis": 970,
      "think": 971,
      "about": 972,
      "ĠDodo": 973,
      "herself": 974,
      "Ġshri": 975,
      "Ġjoin": 976,
      "ards": 977,
      "ĠCHAPTER": 978,
      "Ġstill": 979,
      "Ġwhere": 980,
      "Ġwouldn": 981,
      "ĠSo": 982,
      "ches": 983,
      "ortant": 984,
      "Ġspeak": 985,
      "Ġafra": 986,
      "ĠThere": 987,
      "erpent": 988,
      "Ġused": 989,
      "Ġhands": 990,
      "Ġkept": 991,
      "Ġcats": 992,
      "Ġamong": 993,
      "Ġchange": 994,
      "Ġhurry": 995,
      "Ġbeginning": 996,
      "Ġplease": 997,
      "Ġcalled": 998,
      "Ġfinished": 999,
      "Ġcertainly": 1000,
      "Ġelse": 1001,
      "urpr": 1002,
      "Ġsuddenly": 1003,
      "Ġsize": 1004,
      "igeon": 1005,
      "jesty": 1006,
      "Ġdirect": 1007,
      "Ġafraid": 1008,
      "Here": 1009,
      "_,": 1010,
      "_âĢĿ": 1011,
      "day": 1012,
      "fort": 1013,
      "ict": 1014,
      "lp": 1015,
      "ox": 1016,
      "oves": 1017,
      "rink": 1018,
      "ted": 1019,
      "ued": 1020,
      "uck": 1021,
      "wo": 1022,
      "would": 1023,
      "Ġtr": 1024,
      "Ġtim": 1025,
      "Ġapp": 1026,
      "Ġsleep": 1027,
      "Ġthese": 1028,
      "Ġwit": 1029,
      "ense": 1030,
      "Ġlife": 1031,
      "Ġde": 1032,
      "Ġdou": 1033,
      "Ġdeep": 1034,
      "Ġdeal": 1035,
      "Ġfall": 1036,
      "ised": 1037,
      "ister": 1038,
      "ark": 1039,
      "Ġinst": 1040,
      "ates": 1041,
      "Ġbehind": 1042,
      "versation": 1043,
      "Ġwasn": 1044,
      "ching": 1045,
      "Ġreas": 1046,
      "Ġrest": 1047,
      "eared": 1048,
      "this": 1049,
      "ĠDinah": 1050,
      "ĠSoup": 1051,
      "ched": 1052,
      "Ġsaying": 1053,
      "Ġshar": 1054,
      "ootman": 1055,
      "Ġturn": 1056,
      "ended": 1057,
      "Ġminutes": 1058,
      "Ġhurried": 1059,
      "Off": 1060,
      "Ġpeople": 1061,
      "Ġhardly": 1062,
      "Ġpuzz": 1063,
      "ĠHowever": 1064,
      "Ġsneez": 1065,
      "Ġsuppose": 1066,
      "Ġlisten": 1067,
      "ĠMajesty": 1068,
      "II": 1069,
      "We": 1070,
      "ale": 1071,
      "ex": 1072,
      "even": 1073,
      "fter": 1074,
      "look": 1075,
      "oor": 1076,
      "sp": 1077,
      "some": 1078,
      "umb": 1079,
      "wn": 1080,
      "ĠBut": 1081,
      "Ġtail": 1082,
      "Ġtears": 1083,
      "Ġsea": 1084,
      "Ġsto": 1085,
      "Ġsig": 1086,
      "Ġsurpr": 1087,
      "Ġsister": 1088,
      "Ġown": 1089,
      "ener": 1090,
      "Ġmo": 1091,
      "Ġmind": 1092,
      "Ġmatter": 1093,
      "Ġfell": 1094,
      "Ġhedge": 1095,
      "ĠâĢľâĢĶ": 1096,
      "let": 1097,
      "Ġgener": 1098,
      "Ġbelie": 1099,
      "Ġpie": 1100,
      "Ġhaving": 1101,
      "Ġthrough": 1102,
      "Ġeag": 1103,
      "Ġreally": 1104,
      "them": 1105,
      "irds": 1106,
      "Ġansw": 1107,
      "Ġanxiously": 1108,
      "rily": 1109,
      "ĠHe": 1110,
      "pper": 1111,
      "Ġshout": 1112,
      "Ġqueer": 1113,
      "Ġgrin": 1114,
      "antly": 1115,
      "Ġword": 1116,
      "Ġtwink": 1117,
      "pted": 1118,
      "Ġturning": 1119,
      "ĠPigeon": 1120,
      "Ġmany": 1121,
      "Ġglad": 1122,
      "Ġkeep": 1123,
      "Ġwaited": 1124,
      "Ġopened": 1125,
      "Ġwalked": 1126,
      "Ġbecause": 1127,
      "ressed": 1128,
      "Ġexecution": 1129,
      "Ġtrial": 1130,
      "Ġwitness": 1131,
      "Ġdoub": 1132,
      "Ġreason": 1133,
      "Ġeager": 1134,
      ",)": 1135,
      "Do": 1136,
      "again": 1137,
      "con": 1138,
      "com": 1139,
      "ff": 1140,
      "got": 1141,
      "ies": 1142,
      "iam": 1143,
      "ky": 1144,
      "know": 1145,
      "low": 1146,
      "ner": 1147,
      "nave": 1148,
      "po": 1149,
      "rown": 1150,
      "room": 1151,
      "sid": 1152,
      "sent": 1153,
      "vid": 1154,
      "ĠV": 1155,
      "Ġsing": 1156,
      "Ġsight": 1157,
      "inued": 1158,
      "ering": 1159,
      "erent": 1160,
      "Ġopp": 1161,
      "âĢľâĢĶ": 1162,
      "had": 1163,
      "hand": 1164,
      "Ġbook": 1165,
      "Ġbright": 1166,
      "Ġmost": 1167,
      "Ġmakes": 1168,
      "Ġdist": 1169,
      "Ġdec": 1170,
      "Ġfur": 1171,
      "ati": 1172,
      "Ġgive": 1173,
      "Ġbest": 1174,
      "Ġpig": 1175,
      "Ġpool": 1176,
      "Ġhall": 1177,
      "Ġhold": 1178,
      "oop": 1179,
      "Ġsold": 1180,
      "Ġrun": 1181,
      "Ġnotic": 1182,
      "Ġwhy": 1183,
      "ppy": 1184,
      "Ġwhether": 1185,
      "Ġoffended": 1186,
      "Ġwork": 1187,
      "Ġheads": 1188,
      "Ġthinking": 1189,
      "Ġfew": 1190,
      "Ġalways": 1191,
      "aught": 1192,
      "arts": 1193,
      "Ġplace": 1194,
      "rowd": 1195,
      "ĠĠĠĠĠĠĠĠ": 1196,
      "Ġgloves": 1197,
      "important": 1198,
      "Ġbottle": 1199,
      "rupted": 1200,
      "Ġremarked": 1201,
      "aws": 1202,
      "Ġopen": 1203,
      "Ġchildren": 1204,
      "Ġrepeated": 1205,
      "Ġsitting": 1206,
      "Ġsilence": 1207,
      "Ġlessons": 1208,
      "Ġcontinued": 1209,
      "Ġlearn": 1210,
      "Ġsharp": 1211,
      "Ġbelieve": 1212,
      "Ġshouted": 1213,
      "),": 1214,
      "Would": 1215,
      "When": 1216,
      "ced": 1217,
      "could": 1218,
      "cup": 1219,
      "go": 1220,
      "ger": 1221,
      "ging": 1222,
      "iet": 1223,
      "ls": 1224,
      "med": 1225,
      "nly": 1226,
      "ring": 1227,
      "tone": 1228,
      "ĠN": 1229,
      "Ġver": 1230,
      "Ġim": 1231,
      "ĠOh": 1232,
      "Ġsimp": 1233,
      "Ġserpent": 1234,
      "oun": 1235,
      "Ġwood": 1236,
      "rew": 1237,
      "Ġbat": 1238,
      "Ġbro": 1239,
      "Ġtogether": 1240,
      "Ġche": 1241,
      "Ġcar": 1242,
      "Ġcare": 1243,
      "Ġcrowd": 1244,
      "Ġlying": 1245,
      "Ġdis": 1246,
      "Ġdream": 1247,
      "Ġfright": 1248,
      "Ġfact": 1249,
      "iss": 1250,
      "Ġhelp": 1251,
      "owly": 1252,
      "less": 1253,
      "light": 1254,
      "Ġnice": 1255,
      "any": 1256,
      "Ġpers": 1257,
      "Ġhas": 1258,
      "Ġthose": 1259,
      "stand": 1260,
      "Ġhop": 1261,
      "Ġasleep": 1262,
      "âĢĶâĢĺ": 1263,
      "Ġra": 1264,
      "Ġrose": 1265,
      "Ġrate": 1266,
      "Ġatt": 1267,
      "then": 1268,
      "Ġwhite": 1269,
      "Ġwhiting": 1270,
      "illiam": 1271,
      "Ġsub": 1272,
      "ions": 1273,
      "Ġlive": 1274,
      "Ġshook": 1275,
      "Ġjump": 1276,
      "Ġagainst": 1277,
      "Ġgold": 1278,
      "Ġcouldn": 1279,
      "Ġnose": 1280,
      "Ġord": 1281,
      "indow": 1282,
      "ĠKnave": 1283,
      "unity": 1284,
      "ney": 1285,
      "ortunity": 1286,
      "Ġyourself": 1287,
      "Ġexplain": 1288,
      "Ġconfus": 1289,
      "Ġconversation": 1290,
      "ĠFor": 1291,
      "ĠFootman": 1292,
      "ately": 1293,
      "ired": 1294,
      "Ġleast": 1295,
      "Ġwaiting": 1296,
      "Ġnearly": 1297,
      "Ġmeaning": 1298,
      "Ġtremb": 1299,
      "Ġgrowing": 1300,
      "Ġready": 1301,
      "Ġslates": 1302,
      "Ġslowly": 1303,
      "Ġhard": 1304,
      "Ġfanc": 1305,
      "actly": 1306,
      "Ġfeeling": 1307,
      "Ġparty": 1308,
      "ushroom": 1309,
      "bster": 1310,
      "Ġinterrupted": 1311,
      "acle": 1312,
      "Ġcroquet": 1313,
      "Ġdifferent": 1314,
      "Ġangrily": 1315,
      "began": 1316,
      "Ġmoral": 1317,
      "Ġfollowed": 1318,
      "Ġcreatures": 1319,
      "iddle": 1320,
      "Ġbeautiful": 1321,
      "Ġwhisper": 1322,
      "Ġtimidly": 1323,
      "Ġpuzzled": 1324,
      "Ġhedgeho": 1325,
      "Ġdoubt": 1326,
      "vidence": 1327,
      "Ġopportunity": 1328,
      "Ġsoldiers": 1329,
      "Ġnoticed": 1330,
      ".âĢĻâĢĿ": 1331,
      "?_âĢĿ": 1332,
      "In": 1333,
      "Just": 1334,
      "Turtle": 1335,
      "_.âĢĿ": 1336,
      "av": 1337,
      "can": 1338,
      "ek": 1339,
      "gr": 1340,
      "grow": 1341,
      "how": 1342,
      "ix": 1343,
      "ied": 1344,
      "ject": 1345,
      "ken": 1346,
      "most": 1347,
      "oy": 1348,
      "say": 1349,
      "ts": 1350,
      "tur": 1351,
      "tory": 1352,
      "ue": 1353,
      "umber": 1354,
      "ĊĠĠĠĠĠĠĠĠ": 1355,
      "Ġour": 1356,
      "Ġtru": 1357,
      "Ġtired": 1358,
      "hesh": 1359,
      "Ġsong": 1360,
      "iness": 1361,
      "its": 1362,
      "ery": 1363,
      "have": 1364,
      "Ġbreat": 1365,
      "Ġtop": 1366,
      "Ġcle": 1367,
      "ided": 1368,
      "Ġmar": 1369,
      "Ġmiddle": 1370,
      "cess": 1371,
      "Ġden": 1372,
      "Ġdry": 1373,
      "Ġdread": 1374,
      "Ġdraw": 1375,
      "only": 1376,
      "aster": 1377,
      "ary": 1378,
      "lem": 1379,
      "anch": 1380,
      "Ġhair": 1381,
      "ute": 1382,
      "Ġeach": 1383,
      "Ġeither": 1384,
      "âĢĶâĢľ": 1385,
      "chool": 1386,
      "Ġsolem": 1387,
      "enture": 1388,
      "entures": 1389,
      "etch": 1390,
      "their": 1391,
      "Ġhadn": 1392,
      "verything": 1393,
      "Ġkind": 1394,
      "Ġforgot": 1395,
      "eaking": 1396,
      "imney": 1397,
      "ĠHear": 1398,
      "alking": 1399,
      "Ġneck": 1400,
      "Ġshut": 1401,
      "Ġshoes": 1402,
      "Ġisn": 1403,
      "ssi": 1404,
      "ardon": 1405,
      "Ġstood": 1406,
      "Ġstory": 1407,
      "Ġgoes": 1408,
      "ocket": 1409,
      "Ġventure": 1410,
      "Ġgrown": 1411,
      "ular": 1412,
      "Ġexcl": 1413,
      "aming": 1414,
      "Ġworld": 1415,
      "Ġchin": 1416,
      "Ġconsid": 1417,
      "Ġlarger": 1418,
      "icult": 1419,
      "ĠWhy": 1420,
      "before": 1421,
      "Ġarg": 1422,
      "Ġeye": 1423,
      "Ġusu": 1424,
      "lease": 1425,
      "off": 1426,
      "ending": 1427,
      "Ġmanage": 1428,
      "Ġglass": 1429,
      "upid": 1430,
      "Ġkey": 1431,
      "onsense": 1432,
      "ĠBea": 1433,
      "Ġeverything": 1434,
      "ĠEng": 1435,
      "Ġtrees": 1436,
      "Ġgardeners": 1437,
      "emper": 1438,
      "ĠWilliam": 1439,
      "Ġpuppy": 1440,
      "Ġcoming": 1441,
      "Ġfeel": 1442,
      "bsters": 1443,
      "Ġdifficult": 1444,
      "court": 1445,
      "Ġbusiness": 1446,
      "Ġleave": 1447,
      "iol": 1448,
      "Ġappeared": 1449,
      "Ġdelight": 1450,
      "Ġgenerally": 1451,
      "Ġpiece": 1452,
      "Ġanswer": 1453,
      "Ġeagerly": 1454,
      "Ġdistance": 1455,
      "atiently": 1456,
      "Ġgolden": 1457,
      "heshire": 1458,
      "ĠEngl": 1459,
      "**": 1460,
      "Don": 1461,
      "Let": 1462,
      "Will": 1463,
      "_âĢĶ": 1464,
      "aim": 1465,
      "bs": 1466,
      "bly": 1467,
      "box": 1468,
      "down": 1469,
      "fe": 1470,
      "from": 1471,
      "gl": 1472,
      "lite": 1473,
      "lves": 1474,
      "lanch": 1475,
      "mp": 1476,
      "men": 1477,
      "ny": 1478,
      "oly": 1479,
      "obster": 1480,
      "pig": 1481,
      "ron": 1482,
      "ran": 1483,
      "sit": 1484,
      "side": 1485,
      "will": 1486,
      "ween": 1487,
      "wards": 1488,
      "ĠX": 1489,
      "Ġed": 1490,
      "Ġhat": 1491,
      "ĠYou": 1492,
      "ĠNo": 1493,
      "Ġsent": 1494,
      "Ġsir": 1495,
      "Ġsec": 1496,
      "Ġsever": 1497,
      "Ġsigh": 1498,
      "Ġschool": 1499,
      "inea": 1500,
      "ouble": 1501,
      "Ġwindow": 1502,
      "itten": 1503,
      "Ġoh": 1504,
      "resent": 1505,
      "Ġbl": 1506,
      "Ġtold": 1507,
      "Ġcr": 1508,
      "Ġcut": 1509,
      "ides": 1510,
      "Ġmaking": 1511,
      "Ġmushroom": 1512,
      "Ġlate": 1513,
      "Ġloud": 1514,
      "Ġdro": 1515,
      "Ġfour": 1516,
      "ash": 1517,
      "ison": 1518,
      "orrow": 1519,
      "Ġinches": 1520,
      "Ġgir": 1521,
      "Ġnonsense": 1522,
      "set": 1523,
      "Ġbeat": 1524,
      "ĠAn": 1525,
      "Ġpardon": 1526,
      "Ġhaven": 1527,
      "Ġyouth": 1528,
      "Ġthough": 1529,
      "utter": 1530,
      "Ġhour": 1531,
      "Ġhun": 1532,
      "Ġeg": 1533,
      "Ġevidence": 1534,
      "oof": 1535,
      "urn": 1536,
      "eek": 1537,
      "riz": 1538,
      "together": 1539,
      "imal": 1540,
      "abel": 1541,
      "rying": 1542,
      "ross": 1543,
      "Ġknee": 1544,
      "Ġshow": 1545,
      "Ġbutter": 1546,
      "Ġmelanch": 1547,
      "Ġquiet": 1548,
      "ĠCheshire": 1549,
      "Ġbegun": 1550,
      "Which": 1551,
      "Ġtimes": 1552,
      "Ġgrave": 1553,
      "things": 1554,
      "ign": 1555,
      "Ġchimney": 1556,
      "Ġhimself": 1557,
      "Ġhowever": 1558,
      "Ġothers": 1559,
      "Ġpolite": 1560,
      "Ġalmost": 1561,
      "butter": 1562,
      "ĠFive": 1563,
      "Ġmine": 1564,
      "aged": 1565,
      "ĠLory": 1566,
      "ĠâĢĺ_": 1567,
      "ends": 1568,
      "olded": 1569,
      "Ġpleased": 1570,
      "Ġwritten": 1571,
      "Ġflaming": 1572,
      "empt": 1573,
      "Ġpepper": 1574,
      "izard": 1575,
      "Ġhappened": 1576,
      "Ġarms": 1577,
      "Ġfinish": 1578,
      "Ġguess": 1579,
      "Ġguinea": 1580,
      "Ġwatch": 1581,
      "Ġlove": 1582,
      "Ġlobsters": 1583,
      "Ġinterest": 1584,
      "Ġsilent": 1585,
      "Ġcross": 1586,
      "Ġswim": 1587,
      "Ġacc": 1588,
      "Ġscream": 1589,
      "Ġsneezing": 1590,
      "Ġsurprised": 1591,
      "Ġexecutioner": 1592,
      "Ġdecided": 1593,
      "Ġrunning": 1594,
      "Ġverse": 1595,
      "Ġbroken": 1596,
      "Ġfrightened": 1597,
      "Ġsubject": 1598,
      "Ġhedgehog": 1599,
      "Ġmarked": 1600,
      "Ġdreadfully": 1601,
      "ĠHearts": 1602,
      "Ġexclaim": 1603,
      "ĠEnglish": 1604,
      "Ġmelancholy": 1605,
      "Ġpolitely": 1606,
      "Ġexclaimed": 1607,
      "!âĢĻ": 1608,
      "At": 1609,
      "Are": 1610,
      "All": 1611,
      "For": 1612,
      "HE": 1613,
      "On": 1614,
      "One": 1615,
      "St": 1616,
      "Very": 1617,
      "aper": 1618,
      "co": 1619,
      "do": 1620,
      "du": 1621,
      "dign": 1622,
      "ely": 1623,
      "ead": 1624,
      "everything": 1625,
      "fish": 1626,
      "fect": 1627,
      "gar": 1628,
      "ges": 1629,
      "hot": 1630,
      "ibb": 1631,
      "just": 1632,
      "long": 1633,
      "ment": 1634,
      "oved": 1635,
      "pe": 1636,
      "sc": 1637,
      "su": 1638,
      "sha": 1639,
      "sing": 1640,
      "sity": 1641,
      "te": 1642,
      "tell": 1643,
      "til": 1644,
      "two": 1645,
      "vous": 1646,
      "we": 1647,
      "went": 1648,
      "well": 1649,
      "wonder": 1650,
      "wise": 1651,
      "where": 1652,
      "when": 1653,
      "Ġent": 1654,
      "Ġte": 1655,
      "Ġten": 1656,
      "Ġtree": 1657,
      "Ġtaking": 1658,
      "Ġtarts": 1659,
      "Ġtemper": 1660,
      "Ġsqu": 1661,
      "Ġshan": 1662,
      "Ġsky": 1663,
      "iny": 1664,
      "ervous": 1665,
      "inger": 1666,
      "eds": 1667,
      "Ġbow": 1668,
      "Ġbread": 1669,
      "Ġbox": 1670,
      "Ġbirds": 1671,
      "Ġcas": 1672,
      "lle": 1673,
      "Ġmutter": 1674,
      "ceed": 1675,
      "cept": 1676,
      "Ġdare": 1677,
      "Ġdrink": 1678,
      "Ġdrew": 1679,
      "Ġfun": 1680,
      "Ġfull": 1681,
      "asily": 1682,
      "Ġheight": 1683,
      "Ġoften": 1684,
      "ĠâĢľ_": 1685,
      "aring": 1686,
      "like": 1687,
      "Ġinv": 1688,
      "Ġindign": 1689,
      "atch": 1690,
      "Ġgre": 1691,
      "Ġnervous": 1692,
      "ĠAs": 1693,
      "Ġpr": 1694,
      "Ġpack": 1695,
      "Ġpair": 1696,
      "Ġpict": 1697,
      "Ġyoung": 1698,
      "Ġthrow": 1699,
      "ĠIn": 1700,
      "utiful": 1701,
      "Ġhome": 1702,
      "Ġasking": 1703,
      "uror": 1704,
      "Ġrat": 1705,
      "Ġrabbit": 1706,
      "Ġroof": 1707,
      "adri": 1708,
      "Ġreach": 1709,
      "Ġanimal": 1710,
      "Ġnotice": 1711,
      "ookah": 1712,
      "Ġkid": 1713,
      "Ġforget": 1714,
      "thought": 1715,
      "roll": 1716,
      "Ġnew": 1717,
      "Ġsul": 1718,
      "Ġliked": 1719,
      "Ġshrink": 1720,
      "Ġju": 1721,
      "Ġjuror": 1722,
      "Ġmeant": 1723,
      "Ġhistory": 1724,
      "ĠThat": 1725,
      "Ġstay": 1726,
      "Ġstand": 1727,
      "Ġstick": 1728,
      "Queen": 1729,
      "Ġvan": 1730,
      "Ġviol": 1731,
      "Ġsomebody": 1732,
      "Ġgrun": 1733,
      "ilence": 1734,
      "Ġmyself": 1735,
      "Ġexp": 1736,
      "Ġext": 1737,
      "Ġexactly": 1738,
      "Ġtwice": 1739,
      "Ġreply": 1740,
      "ĠThey": 1741,
      "Ġalong": 1742,
      "Ġaltogether": 1743,
      "ecause": 1744,
      "oots": 1745,
      "Ġplan": 1746,
      "ĠLet": 1747,
      "ĠLobster": 1748,
      "ĠLizard": 1749,
      "Ġcurio": 1750,
      "Ġwaving": 1751,
      "rumb": 1752,
      "Ġchanged": 1753,
      "Ġunderstand": 1754,
      "Ġeverybody": 1755,
      "Ġmeans": 1756,
      "Ġtreacle": 1757,
      "Ġwondering": 1758,
      "Ġwrite": 1759,
      "Ġwriting": 1760,
      "ument": 1761,
      "Ġremembered": 1762,
      "Ġwalk": 1763,
      "Ġbecome": 1764,
      "Ġprocess": 1765,
      "Ġears": 1766,
      "airs": 1767,
      "Ġwater": 1768,
      "times": 1769,
      "Ġangry": 1770,
      "bbing": 1771,
      "Ġswam": 1772,
      "Ġmorning": 1773,
      "rawling": 1774,
      "Ġhappens": 1775,
      "Ġimpatiently": 1776,
      "Ġacross": 1777,
      "Ġsounded": 1778,
      "Ġshrill": 1779,
      "Ġshriek": 1780,
      "Ġdirection": 1781,
      "fortable": 1782,
      "Ġtrouble": 1783,
      "Ġsleepy": 1784,
      "Ġinstantly": 1785,
      "looking": 1786,
      "Ġstop": 1787,
      "Ġsighed": 1788,
      "Ġtwinkle": 1789,
      "Ġsimple": 1790,
      "Ġperson": 1791,
      "Ġjumped": 1792,
      "Ġtrembling": 1793,
      "Ġfancy": 1794,
      "Ġwhispered": 1795,
      "Ġforgotten": 1796,
      "Ġargument": 1797,
      "Ġusual": 1798,
      "range": 1799,
      "Ġsecond": 1800,
      "Ġeggs": 1801,
      "rizes": 1802,
      "Ġquietly": 1803,
      "Ġflamingo": 1804,
      "Ġinteresting": 1805,
      "Ġcase": 1806,
      "adrille": 1807,
      "Ġcuriosity": 1808,
      "!_âĢĿ": 1809,
      ").": 1810,
      "?âĢĶ": 1811,
      "Ah": 1812,
      "An": 1813,
      "Be": 1814,
      "By": 1815,
      "Call": 1816,
      "EN": 1817,
      "Ex": 1818,
      "First": 1819,
      "Gryphon": 1820,
      "Hold": 1821,
      "My": 1822,
      "Please": 1823,
      "Sure": 1824,
      "_.": 1825,
      "az": 1826,
      "after": 1827,
      "by": 1828,
      "bow": 1829,
      "book": 1830,
      "birds": 1831,
      "because": 1832,
      "cc": 1833,
      "ci": 1834,
      "come": 1835,
      "cus": 1836,
      "chan": 1837,
      "cop": 1838,
      "did": 1839,
      "don": 1840,
      "dict": 1841,
      "door": 1842,
      "ext": 1843,
      "gli": 1844,
      "hor": 1845,
      "ip": 1846,
      "las": 1847,
      "lar": 1848,
      "ms": 1849,
      "my": 1850,
      "min": 1851,
      "must": 1852,
      "moment": 1853,
      "near": 1854,
      "oh": 1855,
      "os": 1856,
      "oking": 1857,
      "ped": 1858,
      "pie": 1859,
      "pocket": 1860,
      "ray": 1861,
      "run": 1862,
      "take": 1863,
      "tree": 1864,
      "uc": 1865,
      "under": 1866,
      "ude": 1867,
      "uff": 1868,
      "vil": 1869,
      "wr": 1870,
      "whe": 1871,
      "wor": 1872,
      "ĠâĢĻ": 1873,
      "ĠWhat": 1874,
      "Ġter": 1875,
      "Ġtast": 1876,
      "Ġtak": 1877,
      "Ġtaught": 1878,
      "Ġtiny": 1879,
      "Ġage": 1880,
      "Ġsin": 1881,
      "Ġsoup": 1882,
      "Ġsides": 1883,
      "Ġsorrow": 1884,
      "int": 1885,
      "Ġwow": 1886,
      "Ġwand": 1887,
      "Ġwild": 1888,
      "Ġweek": 1889,
      "ital": 1890,
      "itche": 1891,
      "itude": 1892,
      "Ġob": 1893,
      "rem": 1894,
      "Ġbar": 1895,
      "Ġban": 1896,
      "Ġtoss": 1897,
      "Ġtong": 1898,
      "Ġcor": 1899,
      "Ġcap": 1900,
      "ider": 1901,
      "Ġmice": 1902,
      "Ġmus": 1903,
      "Ġlad": 1904,
      "Ġlay": 1905,
      "Ġlock": 1906,
      "Ġdes": 1907,
      "Ġdish": 1908,
      "Ġdark": 1909,
      "onour": 1910,
      "Ġfly": 1911,
      "Ġfri": 1912,
      "Ġfear": 1913,
      "Ġfast": 1914,
      "Ġfig": 1915,
      "Ġfire": 1916,
      "Ġfrown": 1917,
      "Ġfetch": 1918,
      "Ġfinger": 1919,
      "Ġsadly": 1920,
      "arre": 1921,
      "arse": 1922,
      "lead": 1923,
      "orpo": 1924,
      "atur": 1925,
      "Ġnur": 1926,
      "Ġnight": 1927,
      "Ġnone": 1928,
      "Ġnine": 1929,
      "Ġnibb": 1930,
      "sea": 1931,
      "selves": 1932,
      "anc": 1933,
      "ang": 1934,
      "answ": 1935,
      "anxiously": 1936,
      "ĠAt": 1937,
      "Ġpatter": 1938,
      "Ġpeep": 1939,
      "Ġpret": 1940,
      "Ġpale": 1941,
      "Ġpresent": 1942,
      "Ġporpo": 1943,
      "ote": 1944,
      "Ġho": 1945,
      "Ġhookah": 1946,
      "Ġhonour": 1947,
      "Ġhers": 1948,
      "urd": 1949,
      "Ġsobs": 1950,
      "enth": 1951,
      "enty": 1952,
      "there": 1953,
      "ĠMabel": 1954,
      "Ġkitche": 1955,
      "aint": 1956,
      "ained": 1957,
      "tom": 1958,
      "though": 1959,
      "through": 1960,
      "imble": 1961,
      "question": 1962,
      "Ġdoing": 1963,
      "ĠDo": 1964,
      "roquet": 1965,
      "Ġknock": 1966,
      "pping": 1967,
      "allow": 1968,
      "Ġquick": 1969,
      "ĠThis": 1970,
      "ĠTwo": 1971,
      "ĠCome": 1972,
      "ĠCau": 1973,
      "Ġstra": 1974,
      "Ġstupid": 1975,
      "Ġstrange": 1976,
      "Ġnobody": 1977,
      "ĠQuadrille": 1978,
      "Ġthoughtfully": 1979,
      "ĠSoo": 1980,
      "Ġoffic": 1981,
      "Ġsometimes": 1982,
      "used": 1983,
      "asts": 1984,
      "never": 1985,
      "Ġsays": 1986,
      "Ġgrass": 1987,
      "Ġworth": 1988,
      "Ġspread": 1989,
      "Ġspeaking": 1990,
      "Ġtwel": 1991,
      "igging": 1992,
      "ĠThen": 1993,
      "Ġ(âĢľ": 1994,
      "Ġconcl": 1995,
      "Ġpoin": 1996,
      "Ġaloud": 1997,
      "ĠFather": 1998,
      "icular": 1999,
      "Ġseems": 2000,
      "ootiful": 2001,
      "ĠWho": 2002,
      "Ġshouldn": 2003,
      "Ġshoulder": 2004,
      "Ġarches": 2005,
      "Ġyer": 2006,
      "ĠLong": 2007,
      "Ġmanaged": 2008,
      "Ġbottom": 2009,
      "Ġchance": 2010,
      "Ġuncom": 2011,
      "Ġuntil": 2012,
      "Ġnearer": 2013,
      "Ġencour": 2014,
      "lescop": 2015,
      "Ġjurymen": 2016,
      "nothing": 2017,
      "Ġteacup": 2018,
      "Ġsmil": 2019,
      "Ġwrong": 2020,
      "Ġhearing": 2021,
      "hole": 2022,
      "should": 2023,
      "Ġsett": 2024,
      "Ġbring": 2025,
      "Ġfaces": 2026,
      "Ġbetween": 2027,
      "Ġparticular": 2028,
      "Ġquestions": 2029,
      "Ġsuppressed": 2030,
      "ape": 2031,
      "Ġexecuted": 2032,
      "begin": 2033,
      "Ġplayers": 2034,
      "without": 2035,
      "rench": 2036,
      "retched": 2037,
      "Nothing": 2038,
      "Ġbusily": 2039,
      "Ġmouths": 2040,
      "Ġleaves": 2041,
      "Ġrule": 2042,
      "why": 2043,
      "while": 2044,
      "which": 2045,
      "Ġadventures": 2046,
      "Ġcreature": 2047,
      "Ġpassed": 2048,
      "Ġdead": 2049,
      "Ġdeeply": 2050,
      "Ġfallen": 2051,
      "execut": 2052,
      "Ġsurprise": 2053,
      "Ġfellow": 2054,
      "Ġtwinkling": 2055,
      "confus": 2056,
      "ĠVII": 2057,
      "Ġsharply": 2058,
      "medi": 2059,
      "Ġimmedi": 2060,
      "Ġbats": 2061,
      "Ġcarried": 2062,
      "Ġcrowded": 2063,
      "anything": 2064,
      "Ġhope": 2065,
      "Ġordered": 2066,
      "ground": 2067,
      "saying": 2068,
      "turned": 2069,
      "Ġtrue": 2070,
      "Ġbreath": 2071,
      "Ġclear": 2072,
      "Ġsolemnly": 2073,
      "ssible": 2074,
      "Ġventured": 2075,
      "ĠBeau": 2076,
      "Ġdifficulty": 2077,
      "pigs": 2078,
      "Ġseverely": 2079,
      "Ġdropped": 2080,
      "Ġgirl": 2081,
      "ĠAnn": 2082,
      "Ġhours": 2083,
      "Ġscreamed": 2084,
      "Ġdecidedly": 2085,
      "fectly": 2086,
      "Ġbowed": 2087,
      "Ġindignantly": 2088,
      "Ġgreen": 2089,
      "Ġshrinking": 2090,
      "Ġjudge": 2091,
      "Ġjurors": 2092,
      "Ġvanished": 2093,
      "Ġgrunted": 2094,
      "Ġexpect": 2095,
      "rumbs": 2096,
      "Ġprocession": 2097,
      "glif": 2098,
      "large": 2099,
      "minute": 2100,
      "Ġtaken": 2101,
      "Ġsince": 2102,
      "Ġtongue": 2103,
      "Ġcorner": 2104,
      "Ġcapital": 2105,
      "Ġfrowning": 2106,
      "atural": 2107,
      "Ġporpoise": 2108,
      "Ġkitchen": 2109,
      "ĠCaucus": 2110,
      "Ġstraight": 2111,
      "Ġtwelve": 2112,
      "!âĢĶ": 2113,
      "!âĢĻâĢĿ": 2114,
      ".âĢĻ": 2115,
      ";âĢĿ": 2116,
      "AR": 2117,
      "After": 2118,
      "Bill": 2119,
      "Cons": 2120,
      "Did": 2121,
      "Down": 2122,
      "Duchess": 2123,
      "Dinah": 2124,
      "Every": 2125,
      "Footman": 2126,
      "Give": 2127,
      "Have": 2128,
      "IN": 2129,
      "Is": 2130,
      "Mouse": 2131,
      "ND": 2132,
      "Never": 2133,
      "OR": 2134,
      "Perhaps": 2135,
      "Rabbit": 2136,
      "Su": 2137,
      "Soo": 2138,
      "Tis": 2139,
      "Than": 2140,
      "Take": 2141,
      "Turn": 2142,
      "Yet": 2143,
      "aused": 2144,
      "bo": 2145,
      "best": 2146,
      "cat": 2147,
      "call": 2148,
      "came": 2149,
      "cil": 2150,
      "cceed": 2151,
      "di": 2152,
      "dis": 2153,
      "dear": 2154,
      "does": 2155,
      "ey": 2156,
      "eed": 2157,
      "epper": 2158,
      "fl": 2159,
      "fee": 2160,
      "four": 2161,
      "gg": 2162,
      "gry": 2163,
      "great": 2164,
      "gra": 2165,
      "good": 2166,
      "gged": 2167,
      "iles": 2168,
      "ivil": 2169,
      "ks": 2170,
      "kers": 2171,
      "land": 2172,
      "lare": 2173,
      "mer": 2174,
      "ming": 2175,
      "mon": 2176,
      "much": 2177,
      "mine": 2178,
      "ners": 2179,
      "oon": 2180,
      "ove": 2181,
      "oked": 2182,
      "ossible": 2183,
      "pu": 2184,
      "pan": 2185,
      "pro": 2186,
      "pleas": 2187,
      "pass": 2188,
      "rather": 2189,
      "tis": 2190,
      "tea": 2191,
      "talking": 2192,
      "uous": 2193,
      "vage": 2194,
      "wl": 2195,
      "wink": 2196,
      "who": 2197,
      "walking": 2198,
      "xious": 2199,
      "yet": 2200,
      "ĠOff": 2201,
      "Ġtuck": 2202,
      "Ġtumb": 2203,
      "hes": 2204,
      "help": 2205,
      "Ġag": 2206,
      "Ġali": 2207,
      "Ġsli": 2208,
      "Ġsense": 2209,
      "Ġsix": 2210,
      "inter": 2211,
      "oudly": 2212,
      "itted": 2213,
      "erday": 2214,
      "ings": 2215,
      "rep": 2216,
      "edn": 2217,
      "Ġblow": 2218,
      "Ġboy": 2219,
      "Ġburn": 2220,
      "Ġboots": 2221,
      "Ġtoes": 2222,
      "âĢĻ!âĢĿ": 2223,
      "Ġco": 2224,
      "Ġcha": 2225,
      "Ġcand": 2226,
      "Ġcry": 2227,
      "Ġcust": 2228,
      "Ġcake": 2229,
      "Ġcause": 2230,
      "Ġcakes": 2231,
      "Ġcards": 2232,
      "Ġcrown": 2233,
      "Ġcaught": 2234,
      "Ġcrumbs": 2235,
      "Ġcivil": 2236,
      "ident": 2237,
      "encil": 2238,
      "Ġmis": 2239,
      "Ġment": 2240,
      "Ġmet": 2241,
      "Ġmark": 2242,
      "Ġmiss": 2243,
      "Ġmaster": 2244,
      "Ġmiles": 2245,
      "Ġled": 2246,
      "Ġlau": 2247,
      "Ġlost": 2248,
      "Ġloudly": 2249,
      "Ġdin": 2250,
      "Ġdot": 2251,
      "Ġdri": 2252,
      "Ġdull": 2253,
      "Ġfight": 2254,
      "Ġfish": 2255,
      "Ġfree": 2256,
      "Ġfair": 2257,
      "Ġfond": 2258,
      "Ġfaster": 2259,
      "Ġfron": 2260,
      "Ġfolded": 2261,
      "Ġsad": 2262,
      "Ġsavage": 2263,
      "asy": 2264,
      "ising": 2265,
      "Ġheld": 2266,
      "ĠâĢľâĢĺ": 2267,
      "arm": 2268,
      "lew": 2269,
      "ord": 2270,
      "orto": 2271,
      "orus": 2272,
      "liged": 2273,
      "ath": 2274,
      "ater": 2275,
      "ated": 2276,
      "Ġgently": 2277,
      "Ġnumber": 2278,
      "Ġnatural": 2279,
      "sever": 2280,
      "seem": 2281,
      "Ġbehead": 2282,
      "Ġbelow": 2283,
      "Ġbelong": 2284,
      "anther": 2285,
      "anation": 2286,
      "ĠAdv": 2287,
      "ĠAfter": 2288,
      "Ġpin": 2289,
      "Ġper": 2290,
      "Ġpun": 2291,
      "Ġprom": 2292,
      "Ġpaw": 2293,
      "Ġpity": 2294,
      "Ġpick": 2295,
      "Ġpressed": 2296,
      "Ġpaws": 2297,
      "Ġpocket": 2298,
      "Ġpaper": 2299,
      "Ġprizes": 2300,
      "Ġplead": 2301,
      "Ġhang": 2302,
      "Ġthimble": 2303,
      "Ġwashing": 2304,
      "Ġhumb": 2305,
      "Ġeff": 2306,
      "Ġesc": 2307,
      "Ġeasily": 2308,
      "oose": 2309,
      "âĢĶâĢĻâĢĿ": 2310,
      "child": 2311,
      "urried": 2312,
      "ented": 2313,
      "Ġune": 2314,
      "Ġring": 2315,
      "Ġrid": 2316,
      "Ġrace": 2317,
      "add": 2318,
      "ading": 2319,
      "key": 2320,
      "Ġreal": 2321,
      "Ġrelie": 2322,
      "Ġresp": 2323,
      "Ġreco": 2324,
      "cked": 2325,
      "eech": 2326,
      "Ġnotion": 2327,
      "ĠME": 2328,
      "ĠMary": 2329,
      "rims": 2330,
      "Ġkill": 2331,
      "Ġkick": 2332,
      "ainting": 2333,
      "illed": 2334,
      "three": 2335,
      "quite": 2336,
      "ĠHer": 2337,
      "Ġdog": 2338,
      "Ġdogs": 2339,
      "always": 2340,
      "ĠDon": 2341,
      "ĠDrawling": 2342,
      "rog": 2343,
      "rodu": 2344,
      "Ġneat": 2345,
      "Ġneedn": 2346,
      "Ġoutside": 2347,
      "ppose": 2348,
      "Ġsuit": 2349,
      "Ġsucceed": 2350,
      "ioned": 2351,
      "Ġlivery": 2352,
      "Ġlived": 2353,
      "Ġshore": 2354,
      "Ġshort": 2355,
      "Ġmeet": 2356,
      "ourn": 2357,
      "Ġquarre": 2358,
      "ĠTell": 2359,
      "ĠTime": 2360,
      "ĠTHE": 2361,
      "ĠTorto": 2362,
      "Ġabs": 2363,
      "Ġabove": 2364,
      "Ġstart": 2365,
      "Ġstaring": 2366,
      "Ġstairs": 2367,
      "Ġstuff": 2368,
      "Ġlikely": 2369,
      "While": 2370,
      "ĊĊĠĠĠ": 2371,
      "ĠSha": 2372,
      "ĠSto": 2373,
      "ĠSaid": 2374,
      "ĠSeven": 2375,
      "unate": 2376,
      "uncom": 2377,
      "unimportant": 2378,
      "Ġground": 2379,
      "antage": 2380,
      "ests": 2381,
      "esterday": 2382,
      "Ġexcept": 2383,
      "amp": 2384,
      "Ġspect": 2385,
      "Ġsplas": 2386,
      "Ġmuchness": 2387,
      "Ġvoices": 2388,
      "Ġchoked": 2389,
      "Ġchorus": 2390,
      "oughly": 2391,
      "Ġhowling": 2392,
      "ledge": 2393,
      "Ġposit": 2394,
      "Ġalas": 2395,
      "Ġalone": 2396,
      "Ġmustard": 2397,
      "istake": 2398,
      "Ġshaking": 2399,
      "Ġcourage": 2400,
      "ĠFirst": 2401,
      "ĠFrench": 2402,
      "arty": 2403,
      "Ġshoulders": 2404,
      "Ġlonger": 2405,
      "aging": 2406,
      "aglet": 2407,
      "Ġyaw": 2408,
      "ĠLat": 2409,
      "onderland": 2410,
      "ĠPanther": 2411,
      "Ġhanded": 2412,
      "otherwise": 2413,
      "Ġlegs": 2414,
      "Ġcatch": 2415,
      "Ġdears": 2416,
      "Ġwaist": 2417,
      "Ġhurt": 2418,
      "Ġunfort": 2419,
      "Ġbegins": 2420,
      "Ġfinding": 2421,
      "Ġremarking": 2422,
      "Ġclos": 2423,
      "ĠEaglet": 2424,
      "planation": 2425,
      "Ġfloor": 2426,
      "Ġreading": 2427,
      "Ġsorts": 2428,
      "Ġslate": 2429,
      "ĠWhere": 2430,
      "els": 2431,
      "Ġbrought": 2432,
      "Ġproper": 2433,
      "Ġrepeating": 2434,
      "Ġsnail": 2435,
      "Ġguests": 2436,
      "Ġearth": 2437,
      "autiously": 2438,
      "clock": 2439,
      "soon": 2440,
      "acles": 2441,
      "ressing": 2442,
      "Ġlesson": 2443,
      "Ġfootman": 2444,
      "Ġelbow": 2445,
      "Ġswallow": 2446,
      "Ġsmaller": 2447,
      "appear": 2448,
      "appeared": 2449,
      "Ġwanted": 2450,
      "Ġfollows": 2451,
      "Ġrules": 2452,
      "Ġremarks": 2453,
      "ĠOF": 2454,
      "ĠOwl": 2455,
      "Ġimportant": 2456,
      "Ġimpossible": 2457,
      "Ġsounds": 2458,
      "Ġbeautif": 2459,
      "Ġpassion": 2460,
      "Ġpassage": 2461,
      "Ġjoined": 2462,
      "Ġdirections": 2463,
      "_,âĢĻâĢĿ": 2464,
      "Ġtimid": 2465,
      "Ġinstance": 2466,
      "Ġinstead": 2467,
      "Ġturns": 2468,
      "Ġlistening": 2469,
      "evening": 2470,
      "looked": 2471,
      "Ġtails": 2472,
      "Ġsign": 2473,
      "Ġmove": 2474,
      "Ġmoving": 2475,
      "Ġmoved": 2476,
      "Ġgeneral": 2477,
      "themselves": 2478,
      "Ġanswered": 2479,
      "Ġgrinned": 2480,
      "conversation": 2481,
      "poison": 2482,
      "Ġdeclare": 2483,
      "Ġholding": 2484,
      "going": 2485,
      "Ġchecked": 2486,
      "Ġhoping": 2487,
      "Ġroses": 2488,
      "Ġattending": 2489,
      "Ġjumping": 2490,
      "Ġorder": 2491,
      "Ġconfused": 2492,
      "Ġconfusion": 2493,
      "avy": 2494,
      "growing": 2495,
      "ixed": 2496,
      "turning": 2497,
      "Ġtrump": 2498,
      "Ġbreathe": 2499,
      "Ġsolemn": 2500,
      "ssibly": 2501,
      "Ġconsidered": 2502,
      "Ġconsidering": 2503,
      "ĠBeautiful": 2504,
      "_âĢĶâĢĻ": 2505,
      "felt": 2506,
      "glass": 2507,
      "Ġedge": 2508,
      "Ġsentence": 2509,
      "Ġcrash": 2510,
      "Ġhunting": 2511,
      "Ġhungry": 2512,
      "Ġgravely": 2513,
      "emptuous": 2514,
      "Ġguessed": 2515,
      "Ġaccoun": 2516,
      "Ġverses": 2517,
      "Once": 2518,
      "Ġtelescop": 2519,
      "Ġmuttering": 2520,
      "Ġprison": 2521,
      "Ġpictures": 2522,
      "Ġanimals": 2523,
      "Ġforgetting": 2524,
      "Ġsulky": 2525,
      "Ġviolently": 2526,
      "changed": 2527,
      "piece": 2528,
      "Ġobliged": 2529,
      "Ġtossing": 2530,
      "Ġmusic": 2531,
      "Ġlady": 2532,
      "Ġfigure": 2533,
      "Ġnursing": 2534,
      "Ġnibbling": 2535,
      "Ġpattering": 2536,
      "Ġpeeped": 2537,
      "Ġhoarse": 2538,
      "Ġofficers": 2539,
      "Ġpointing": 2540,
      "Ġuncomfortable": 2541,
      "Ġsettled": 2542,
      "Ġimmediately": 2543,
      "Ġexpecting": 2544,
      "Consider": 2545,
      "Everybody": 2546,
      "Thank": 2547,
      "called": 2548,
      "puzz": 2549,
      "winkle": 2550,
      "Ġtucked": 2551,
      "Ġalive": 2552,
      "Ġcandle": 2553,
      "Ġmentioned": 2554,
      "Ġdoth": 2555,
      "Ġpleaded": 2556,
      "Ġhanging": 2557,
      "Ġeffect": 2558,
      "Ġescape": 2559,
      "Ġrespect": 2560,
      "Ġsucceeded": 2561,
      "ĠTortoise": 2562,
      "Ġspectacles": 2563,
      "Ġunfortunate": 2564,
      "Ġtrumpet": 2565,
      "):": 2566,
      ");": 2567,
      ")âĢĶâĢľ": 2568,
      ",âĢĻ": 2569,
      ".âĢĶ": 2570,
      "11": 2571,
      "?âĢĻâĢĿ": 2572,
      "Adv": 2573,
      "BO": 2574,
      "Bea": 2575,
      "BER": 2576,
      "CH": 2577,
      "CT": 2578,
      "Can": 2579,
      "DR": 2580,
      "Does": 2581,
      "Everything": 2582,
      "ECT": 2583,
      "Found": 2584,
      "Go": 2585,
      "Gr": 2586,
      "Get": 2587,
      "Ho": 2588,
      "IT": 2589,
      "JECT": 2590,
      "King": 2591,
      "Keep": 2592,
      "Last": 2593,
      "May": 2594,
      "March": 2595,
      "OK": 2596,
      "Only": 2597,
      "OJECT": 2598,
      "Pre": 2599,
      "Poor": 2600,
      "Party": 2601,
      "Rea": 2602,
      "Race": 2603,
      "ROJECT": 2604,
      "Sh": 2605,
      "Sp": 2606,
      "Some": 2607,
      "Soup": 2608,
      "Serpent": 2609,
      "Seven": 2610,
      "Silence": 2611,
      "Tre": 2612,
      "Tell": 2613,
      "Two": 2614,
      "THE": 2615,
      "TEN": 2616,
      "Twinkle": 2617,
      "UL": 2618,
      "UM": 2619,
      "US": 2620,
      "Un": 2621,
      "Up": 2622,
      "Ugh": 2623,
      "Uglif": 2624,
      "UTEN": 2625,
      "Wow": 2626,
      "With": 2627,
      "Wake": 2628,
      "Where": 2629,
      "Your": 2630,
      "_:": 2631,
      "_âĢĶâĢĿ": 2632,
      "ax": 2633,
      "ais": 2634,
      "aves": 2635,
      "ault": 2636,
      "bur": 2637,
      "bour": 2638,
      "bish": 2639,
      "back": 2640,
      "bread": 2641,
      "baby": 2642,
      "cer": 2643,
      "cha": 2644,
      "car": 2645,
      "cle": 2646,
      "cor": 2647,
      "cur": 2648,
      "creat": 2649,
      "croquet": 2650,
      "dw": 2651,
      "ded": 2652,
      "des": 2653,
      "dream": 2654,
      "drun": 2655,
      "either": 2656,
      "fr": 2657,
      "fall": 2658,
      "found": 2659,
      "face": 2660,
      "fright": 2661,
      "flow": 2662,
      "fits": 2663,
      "fetch": 2664,
      "folded": 2665,
      "fanc": 2666,
      "filled": 2667,
      "gly": 2668,
      "ghed": 2669,
      "gular": 2670,
      "him": 2671,
      "hist": 2672,
      "hurried": 2673,
      "ier": 2674,
      "ili": 2675,
      "iver": 2676,
      "ipp": 2677,
      "iving": 2678,
      "ipped": 2679,
      "jury": 2680,
      "jump": 2681,
      "kn": 2682,
      "kes": 2683,
      "kind": 2684,
      "kily": 2685,
      "lid": 2686,
      "later": 2687,
      "mor": 2688,
      "makes": 2689,
      "making": 2690,
      "mushroom": 2691,
      "moved": 2692,
      "mmer": 2693,
      "mitted": 2694,
      "nat": 2695,
      "nes": 2696,
      "nur": 2697,
      "nam": 2698,
      "over": 2699,
      "obe": 2700,
      "occ": 2701,
      "ogra": 2702,
      "pr": 2703,
      "pot": 2704,
      "pers": 2705,
      "past": 2706,
      "pick": 2707,
      "paws": 2708,
      "pute": 2709,
      "please": 2710,
      "present": 2711,
      "painting": 2712,
      "rith": 2713,
      "rab": 2714,
      "ram": 2715,
      "rance": 2716,
      "rup": 2717,
      "sm": 2718,
      "sn": 2719,
      "sal": 2720,
      "sort": 2721,
      "sure": 2722,
      "sold": 2723,
      "sently": 2724,
      "sult": 2725,
      "surpr": 2726,
      "silence": 2727,
      "tr": 2728,
      "tw": 2729,
      "tse": 2730,
      "tly": 2731,
      "till": 2732,
      "teen": 2733,
      "tast": 2734,
      "tling": 2735,
      "tail": 2736,
      "temper": 2737,
      "tip": 2738,
      "trodu": 2739,
      "uce": 2740,
      "ually": 2741,
      "uded": 2742,
      "vo": 2743,
      "vent": 2744,
      "viol": 2745,
      "were": 2746,
      "want": 2747,
      "window": 2748,
      "watch": 2749,
      "yst": 2750,
      "ze": 2751,
      "Ġve": 2752,
      "Ġill": 2753,
      "ĠNow": 2754,
      "Ġ11": 2755,
      "Ġtou": 2756,
      "Ġtall": 2757,
      "Ġtreat": 2758,
      "Ġturtle": 2759,
      "Ġtakes": 2760,
      "Ġtale": 2761,
      "Ġax": 2762,
      "Ġact": 2763,
      "Ġago": 2764,
      "Ġse": 2765,
      "Ġsk": 2766,
      "Ġser": 2767,
      "Ġsen": 2768,
      "Ġsell": 2769,
      "Ġsending": 2770,
      "ining": 2771,
      "ines": 2772,
      "inary": 2773,
      "oured": 2774,
      "Ġwet": 2775,
      "Ġwink": 2776,
      "Ġwom": 2777,
      "Ġwag": 2778,
      "Ġwide": 2779,
      "Ġwine": 2780,
      "Ġweak": 2781,
      "Ġwretched": 2782,
      "itation": 2783,
      "itions": 2784,
      "itated": 2785,
      "ndo": 2786,
      "eror": 2787,
      "erable": 2788,
      "erret": 2789,
      "erci": 2790,
      "Ġocc": 2791,
      "âĢľâĢĻ": 2792,
      "half": 2793,
      "happ": 2794,
      "haven": 2795,
      "happy": 2796,
      "hamed": 2797,
      "reme": 2798,
      "reak": 2799,
      "Ġbad": 2800,
      "Ġbir": 2801,
      "Ġbite": 2802,
      "Ġbody": 2803,
      "Ġbark": 2804,
      "Ġblew": 2805,
      "Ġbreak": 2806,
      "Ġtones": 2807,
      "âĢĻâĢĶ": 2808,
      "Ġcir": 2809,
      "Ġcau": 2810,
      "Ġcart": 2811,
      "Ġcup": 2812,
      "Ġcool": 2813,
      "Ġcoup": 2814,
      "Ġcoll": 2815,
      "Ġcond": 2816,
      "Ġcrying": 2817,
      "Ġcaused": 2818,
      "Ġcrims": 2819,
      "Ġcautiously": 2820,
      "eng": 2821,
      "ening": 2822,
      "enough": 2823,
      "enny": 2824,
      "lly": 2825,
      "lling": 2826,
      "llent": 2827,
      "Ġma": 2828,
      "Ġmon": 2829,
      "Ġmere": 2830,
      "Ġmil": 2831,
      "Ġmess": 2832,
      "Ġmod": 2833,
      "Ġmile": 2834,
      "Ġmeek": 2835,
      "Ġmourn": 2836,
      "Ġmistake": 2837,
      "Ġmixed": 2838,
      "cellent": 2839,
      "Ġlaw": 2840,
      "Ġline": 2841,
      "Ġlaid": 2842,
      "Ġlap": 2843,
      "Ġlaz": 2844,
      "Ġdanc": 2845,
      "Ġdigging": 2846,
      "Ġdais": 2847,
      "once": 2848,
      "onqu": 2849,
      "Ġfit": 2850,
      "Ġfif": 2851,
      "Ġfam": 2852,
      "Ġfather": 2853,
      "Ġfine": 2854,
      "Ġfoun": 2855,
      "Ġfav": 2856,
      "Ġfash": 2857,
      "Ġfaint": 2858,
      "Ġsand": 2859,
      "Ġsalt": 2860,
      "Ġsang": 2861,
      "Ġsauce": 2862,
      "asion": 2863,
      "ashed": 2864,
      "isit": 2865,
      "ises": 2866,
      "isable": 2867,
      "Ġheart": 2868,
      "ower": 2869,
      "aris": 2870,
      "arrow": 2871,
      "legged": 2872,
      "leaves": 2873,
      "orter": 2874,
      "orth": 2875,
      "oroughly": 2876,
      "orcar": 2877,
      "lives": 2878,
      "living": 2879,
      "Ġink": 2880,
      "Ġintrodu": 2881,
      "atching": 2882,
      "Ġgidd": 2883,
      "Ġgoose": 2884,
      "Ġgiving": 2885,
      "Ġnor": 2886,
      "Ġnarrow": 2887,
      "sec": 2888,
      "see": 2889,
      "semb": 2890,
      "Ġbear": 2891,
      "Ġbesid": 2892,
      "Ġbeasts": 2893,
      "aning": 2894,
      "anter": 2895,
      "anting": 2896,
      "anches": 2897,
      "anced": 2898,
      "ĠAll": 2899,
      "Ġpat": 2900,
      "Ġpur": 2901,
      "Ġparch": 2902,
      "Ġpull": 2903,
      "Ġpause": 2904,
      "Ġpatiently": 2905,
      "Ġpencil": 2906,
      "Ġpanting": 2907,
      "otting": 2908,
      "otic": 2909,
      "Ġthro": 2910,
      "Ġthous": 2911,
      "Ġthoroughly": 2912,
      "ĠII": 2913,
      "ĠIV": 2914,
      "ĠIX": 2915,
      "ĠIII": 2916,
      "sting": 2917,
      "stly": 2918,
      "stant": 2919,
      "step": 2920,
      "stupid": 2921,
      "vered": 2922,
      "verse": 2923,
      "verdict": 2924,
      "Ġwash": 2925,
      "Ġwasting": 2926,
      "ldron": 2927,
      "uth": 2928,
      "Ġhit": 2929,
      "Ġhot": 2930,
      "ghing": 2931,
      "Ġele": 2932,
      "Ġeasy": 2933,
      "Ġashamed": 2934,
      "Ġassemb": 2935,
      "esides": 2936,
      "urred": 2937,
      "Ġsoft": 2938,
      "Ġsobbing": 2939,
      "Ġugly": 2940,
      "Ġundo": 2941,
      "etween": 2942,
      "Ġro": 2943,
      "Ġrow": 2944,
      "Ġrust": 2945,
      "Ġrush": 2946,
      "Ġrap": 2947,
      "Ġridd": 2948,
      "Ġroy": 2949,
      "adv": 2950,
      "ades": 2951,
      "Ġatom": 2952,
      "ters": 2953,
      "tered": 2954,
      "These": 2955,
      "Ġwithin": 2956,
      "Ġred": 2957,
      "Ġreturned": 2958,
      "irring": 2959,
      "Ġanno": 2960,
      "Ġanxious": 2961,
      "Ġnote": 2962,
      "ĠMad": 2963,
      "ĠMiss": 2964,
      "ĠMorcar": 2965,
      "ria": 2966,
      "rier": 2967,
      "toe": 2968,
      "iment": 2969,
      "queer": 2970,
      "ably": 2971,
      "Ġupset": 2972,
      "ĠDuck": 2973,
      "elled": 2974,
      "Ġneigh": 2975,
      "geho": 2976,
      "Ġknot": 2977,
      "Ġknife": 2978,
      "Ġsun": 2979,
      "Ġsummer": 2980,
      "Ġlie": 2981,
      "Ġlives": 2982,
      "Ġshill": 2983,
      "Ġshorter": 2984,
      "Ġthistle": 2985,
      "Ġjar": 2986,
      "Ġjaws": 2987,
      "ounds": 2988,
      "ĠTh": 2989,
      "ĠTea": 2990,
      "ĠTears": 2991,
      "ĠTale": 2992,
      "ĠTarts": 2993,
      "ĠCroquet": 2994,
      "ĠCrab": 2995,
      "ĠConqu": 2996,
      "Ġwhatever": 2997,
      "Ġstru": 2998,
      "Ġstoop": 2999,
      "Ġstretched": 3000,
      "Ġstamp": 3001,
      "Ġknows": 3002,
      "Ġknowing": 3003,
      "Ġknowledge": 3004,
      "ocking": 3005,
      "Ġnoise": 3006,
      "Ġthoughts": 3007,
      "ĠStory": 3008,
      "ĠSends": 3009,
      "Ġvar": 3010,
      "Ġoffer": 3011,
      "Ġsomewhere": 3012,
      "oming": 3013,
      "ung": 3014,
      "usion": 3015,
      "hantly": 3016,
      "ersault": 3017,
      "next": 3018,
      "neath": 3019,
      "nestly": 3020,
      "onely": 3021,
      "Ġwhose": 3022,
      "ulous": 3023,
      "Ġyours": 3024,
      "ared": 3025,
      "phy": 3026,
      "ĠGUTEN": 3027,
      "Ġexper": 3028,
      "Ġexplanation": 3029,
      "Ġexcellent": 3030,
      "amine": 3031,
      "Ġ***": 3032,
      "Ġworse": 3033,
      "linging": 3034,
      "Ġspoon": 3035,
      "Ġspeech": 3036,
      "Ġtwenty": 3037,
      "ured": 3038,
      "Ġfeather": 3039,
      "race": 3040,
      "ract": 3041,
      "raord": 3042,
      "Ġchoice": 3043,
      "Ġchose": 3044,
      "Ġconcer": 3045,
      "Ġconstant": 3046,
      "Ġpossibly": 3047,
      "Ġalread": 3048,
      "Ġalso": 3049,
      "Ġalarm": 3050,
      "isted": 3051,
      "istling": 3052,
      "forehead": 3053,
      "Ġnowhere": 3054,
      "Ġshaped": 3055,
      "ication": 3056,
      "ĠWhile": 3057,
      "ĠWhich": 3058,
      "behind": 3059,
      "irely": 3060,
      "Ġaround": 3061,
      "Ġlonged": 3062,
      "Ġplate": 3063,
      "Ġplates": 3064,
      "Ġusing": 3065,
      "Ġafterwards": 3066,
      "ages": 3067,
      "agine": 3068,
      "rowful": 3069,
      "Ġyesterday": 3070,
      "perhaps": 3071,
      "perfectly": 3072,
      "ĠLittle": 3073,
      "Ġcurled": 3074,
      "Ġlasted": 3075,
      "Ġputting": 3076,
      "Ġremain": 3077,
      "Ġremoved": 3078,
      "Ġremained": 3079,
      "ĠPat": 3080,
      "ĠPig": 3081,
      "ĠPool": 3082,
      "ĠPray": 3083,
      "ĠPepper": 3084,
      "ĠPROJECT": 3085,
      "ĠParis": 3086,
      "hedgeho": 3087,
      "Ġmanner": 3088,
      "Ġleaning": 3089,
      "upon": 3090,
      "upset": 3091,
      "ations": 3092,
      "Ġdoors": 3093,
      "ected": 3094,
      "Ġcatching": 3095,
      "Ġdays": 3096,
      "Ġtells": 3097,
      "Ġtelling": 3098,
      "Ġchanging": 3099,
      "Ġchanges": 3100,
      "Ġunpleas": 3101,
      "Ġunfolded": 3102,
      "Ġunhappy": 3103,
      "Ġcomes": 3104,
      "Ġundertone": 3105,
      "Ġunderneath": 3106,
      "Ġclock": 3107,
      "Ġclaws": 3108,
      "Ġpleasure": 3109,
      "However": 3110,
      "Nobody": 3111,
      "eated": 3112,
      "ively": 3113,
      "ĠEvidence": 3114,
      "ĠEND": 3115,
      "ĠEBO": 3116,
      "Ġtreading": 3117,
      "Ġwonderful": 3118,
      "Ġgrowl": 3119,
      "ief": 3120,
      "place": 3121,
      "plenty": 3122,
      "Ġsmile": 3123,
      "Ġwrote": 3124,
      "Ġflat": 3125,
      "Ġflapp": 3126,
      "Ġpebb": 3127,
      "tains": 3128,
      "Ġuseful": 3129,
      "ĠWith": 3130,
      "ĠWhen": 3131,
      "ĠWonderland": 3132,
      "Ġwalking": 3133,
      "Ġbrown": 3134,
      "Ġbranches": 3135,
      "Ġbecame": 3136,
      "Ġproved": 3137,
      "Ġprodu": 3138,
      "Ġproceed": 3139,
      "Ġevening": 3140,
      "Ġsnatch": 3141,
      "ertainly": 3142,
      "Ġcomp": 3143,
      "Ġcomfort": 3144,
      "Ġcomfits": 3145,
      "Ġfeeble": 3146,
      "Ġearls": 3147,
      "Ġearnestly": 3148,
      "ushion": 3149,
      "many": 3150,
      "Ġwatching": 3151,
      "Ġwatched": 3152,
      "Ġlobster": 3153,
      "acc": 3154,
      "Ġfootstep": 3155,
      "Ġanger": 3156,
      "Ġplaying": 3157,
      "bbed": 3158,
      "Ġtrick": 3159,
      "Ġtriump": 3160,
      "retching": 3161,
      "yourself": 3162,
      "Ġsmallest": 3163,
      "course": 3164,
      "Ġwants": 3165,
      "Ġbusy": 3166,
      "Ġrude": 3167,
      "Ġrubbing": 3168,
      "Ġcontemptuous": 3169,
      "Ġcourtiers": 3170,
      "Ġremarkable": 3171,
      "ĠOn": 3172,
      "Ġadvance": 3173,
      "Ġadvantage": 3174,
      "Ġadvisable": 3175,
      "Ġscroll": 3176,
      "Ġletter": 3177,
      "Ġlearning": 3178,
      "Ġnames": 3179,
      "Ġwhiskers": 3180,
      "Ġwherever": 3181,
      "Ġdirected": 3182,
      "Ġdirectly": 3183,
      "days": 3184,
      "uckily": 3185,
      "Ġtrotting": 3186,
      "Ġtruth": 3187,
      "Ġapples": 3188,
      "Ġhurriedly": 3189,
      "Ġpuzzling": 3190,
      "Ġsneeze": 3191,
      "Ġsneezes": 3192,
      "examine": 3193,
      "speak": 3194,
      "something": 3195,
      "umbled": 3196,
      "umbria": 3197,
      "Ġstopped": 3198,
      "Ġsigned": 3199,
      "Ġsisters": 3200,
      "Ġmatters": 3201,
      "lets": 3202,
      "Ġkeeping": 3203,
      "cont": 3204,
      "sentence": 3205,
      "ĠVI": 3206,
      "Ġsinging": 3207,
      "Ġsingers": 3208,
      "Ġmostly": 3209,
      "Ġdistant": 3210,
      "Ġfurther": 3211,
      "Ġfurrow": 3212,
      "Ġpigs": 3213,
      "aughter": 3214,
      "Ġplaces": 3215,
      "Ġopening": 3216,
      "Ġlearnt": 3217,
      "cupbo": 3218,
      "ĠNorth": 3219,
      "Ġverdict": 3220,
      "Ġsimply": 3221,
      "Ġserpents": 3222,
      "Ġbroke": 3223,
      "Ġcheered": 3224,
      "Ġcarrying": 3225,
      "Ġcares": 3226,
      "Ġcarefully": 3227,
      "Ġdishes": 3228,
      "Ġnicely": 3229,
      "Ġpersisted": 3230,
      "Ġhasn": 3231,
      "âĢĶâĢĺ_": 3232,
      "Ġraven": 3233,
      "Ġraving": 3234,
      "Ġraised": 3235,
      "Ġattempt": 3236,
      "Ġconfusing": 3237,
      "Ġtrembled": 3238,
      "Ġfancied": 3239,
      "Ġfeelings": 3240,
      "Ġhedgehogs": 3241,
      "Ġdoubtful": 3242,
      "Ġdoubtfully": 3243,
      "grand": 3244,
      "Ġdeny": 3245,
      "Ġdenied": 3246,
      "Ġkindly": 3247,
      "Ġshutting": 3248,
      "Ġusually": 3249,
      "Ġdelighted": 3250,
      "Ġdelightful": 3251,
      "Ġpieces": 3252,
      "***": 3253,
      "gloves": 3254,
      "ĠXI": 3255,
      "ĠXII": 3256,
      "Ġeditions": 3257,
      "Ġhate": 3258,
      "Ġseveral": 3259,
      "Ġsighing": 3260,
      "Ġblasts": 3261,
      "Ġgirls": 3262,
      "Ġbeating": 3263,
      "Ġshowing": 3264,
      "Ġlovely": 3265,
      "Ġcrossed": 3266,
      "Ġswimming": 3267,
      "Ġaccident": 3268,
      "coat": 3269,
      "people": 3270,
      "sudden": 3271,
      "teenth": 3272,
      "wondering": 3273,
      "Ġentang": 3274,
      "Ġentirely": 3275,
      "Ġsqueez": 3276,
      "Ġsqueaking": 3277,
      "Ġmuttered": 3278,
      "Ġfunny": 3279,
      "likely": 3280,
      "Ġinvited": 3281,
      "Ġinvitation": 3282,
      "Ġthrowing": 3283,
      "Ġrattling": 3284,
      "rolled": 3285,
      "Ġsulkily": 3286,
      "Ġextreme": 3287,
      "Ġextraord": 3288,
      "Ġpersonal": 3289,
      "Ġsecondly": 3290,
      "Explain": 3291,
      "Exactly": 3292,
      "bye": 3293,
      "hority": 3294,
      "myself": 3295,
      "nearly": 3296,
      "running": 3297,
      "ucumber": 3298,
      "writing": 3299,
      "whether": 3300,
      "worth": 3301,
      "Ġtasted": 3302,
      "Ġwandering": 3303,
      "Ġwildly": 3304,
      "remark": 3305,
      "Ġbarrowful": 3306,
      "Ġbank": 3307,
      "Ġlocks": 3308,
      "Ġdesper": 3309,
      "Ġfriend": 3310,
      "Ġfriends": 3311,
      "answer": 3312,
      "Ġknocking": 3313,
      "Ġquickly": 3314,
      "Ġconcluded": 3315,
      "Ġconclusion": 3316,
      "ĠLongitude": 3317,
      "Ġencouraging": 3318,
      "Ġsmiling": 3319,
      "Ġsmiled": 3320,
      "Ġbringing": 3321,
      "beginning": 3322,
      "executed": 3323,
      "confusion": 3324,
      "ĠVIII": 3325,
      "ART": 3326,
      "INK": 3327,
      "ORUS": 3328,
      "Suppose": 3329,
      "doesn": 3330,
      "eyes": 3331,
      "Ġtumbling": 3332,
      "Ġagree": 3333,
      "Ġslipped": 3334,
      "replied": 3335,
      "Ġcoax": 3336,
      "Ġcustody": 3337,
      "Ġmiserable": 3338,
      "Ġmissed": 3339,
      "Ġdinner": 3340,
      "Ġfront": 3341,
      "several": 3342,
      "seemed": 3343,
      "Ġbeheaded": 3344,
      "Ġbelongs": 3345,
      "ĠAdventures": 3346,
      "Ġpinched": 3347,
      "Ġperfectly": 3348,
      "Ġpicked": 3349,
      "Ġhumbly": 3350,
      "Ġuneasily": 3351,
      "Ġrelief": 3352,
      "Ġrecovered": 3353,
      "Ġneatly": 3354,
      "Ġquarrelling": 3355,
      "Ġabsurd": 3356,
      "Ġstarted": 3357,
      "ĠStole": 3358,
      "Ġsplashing": 3359,
      "Ġposition": 3360,
      "Ġyawning": 3361,
      "ĠLatitude": 3362,
      "Ġwaistcoat": 3363,
      "Ġclosed": 3364,
      "Ġbeautifully": 3365,
      "Ġsignif": 3366,
      "Ġtelescope": 3367,
      "Ġprisoner": 3368,
      "puzzling": 3369,
      "Beautiful": 3370,
      "BERG": 3371,
      "CHORUS": 3372,
      "DRINK": 3373,
      "Ground": 3374,
      "Hole": 3375,
      "Presently": 3376,
      "Really": 3377,
      "Speak": 3378,
      "Treacle": 3379,
      "Uglification": 3380,
      "bishop": 3381,
      "creatures": 3382,
      "dwin": 3383,
      "drunk": 3384,
      "frame": 3385,
      "fancy": 3386,
      "history": 3387,
      "nurse": 3388,
      "namented": 3389,
      "occasion": 3390,
      "ography": 3391,
      "proud": 3392,
      "rupting": 3393,
      "soldiers": 3394,
      "twist": 3395,
      "tempered": 3396,
      "Ġtaller": 3397,
      "Ġturtles": 3398,
      "Ġsensation": 3399,
      "Ġwoman": 3400,
      "errets": 3401,
      "ercia": 3402,
      "Ġoccurred": 3403,
      "Ġbird": 3404,
      "Ġcauldron": 3405,
      "Ġcollected": 3406,
      "Ġcrimson": 3407,
      "ennyworth": 3408,
      "Ġmonth": 3409,
      "Ġmerely": 3410,
      "Ġmilk": 3411,
      "Ġmessages": 3412,
      "Ġmoder": 3413,
      "Ġmeekly": 3414,
      "Ġdancing": 3415,
      "Ġfountains": 3416,
      "Ġfashion": 3417,
      "Ġsaucepan": 3418,
      "Ġgiddy": 3419,
      "Ġbesides": 3420,
      "Ġpurring": 3421,
      "Ġparchment": 3422,
      "Ġthroat": 3423,
      "Ġthousand": 3424,
      "Ġassembled": 3425,
      "Ġrapidly": 3426,
      "Ġriddles": 3427,
      "Ġroyal": 3428,
      "Ġannoy": 3429,
      "Ġneighbour": 3430,
      "ĠConqueror": 3431,
      "Ġstruck": 3432,
      "Ġstamping": 3433,
      "ĠGUTENBERG": 3434,
      "Ġexperiment": 3435,
      "Ġconcert": 3436,
      "Ġalready": 3437,
      "Ġunpleasant": 3438,
      "ĠEBOOK": 3439,
      "Ġpebbles": 3440,
      "Ġfootsteps": 3441,
      "Ġtriumphantly": 3442,
      "cupboards": 3443,
      "ĠNorthumbria": 3444,
      "Ġentangled": 3445,
      "Ġextremely": 3446,
      "Ġextraordinary": 3447,
      "Ġcoaxing": 3448
    },
    "merges": [
      [
        "Ġ",
        "t"
      ],
      [
        "h",
        "e"
      ],
      [
        "â",
        "Ģ"
      ],
      [
        "Ġ",
        "a"
      ],
      [
        "Ġ",
        "s"
      ],
      [
        "i",
        "n"
      ],
      [
        "Ġt",
        "he"
      ],
      [
        "o",
        "u"
      ],
      [
        "Ġ",
        "w"
      ],
      [
        "i",
        "t"
      ],
      [
        "n",
        "d"
      ],
      [
        "e",
        "r"
      ],
      [
        "Ġ",
        "o"
      ],
      [
        "âĢ",
        "ľ"
      ],
      [
        "âĢ",
        "Ŀ"
      ],
      [
        "h",
        "a"
      ],
      [
        "in",
        "g"
      ],
      [
        "r",
        "e"
      ],
      [
        "e",
        "d"
      ],
      [
        "Ġ",
        "b"
      ],
      [
        "Ġt",
        "o"
      ],
      [
        "âĢ",
        "Ļ"
      ],
      [
        "Ġ",
        "c"
      ],
      [
        "Ġa",
        "nd"
      ],
      [
        "i",
        "d"
      ],
      [
        "e",
        "n"
      ],
      [
        "l",
        "l"
      ],
      [
        "Ġ",
        "m"
      ],
      [
        "c",
        "e"
      ],
      [
        "Ġ",
        "l"
      ],
      [
        "Ġ",
        "d"
      ],
      [
        "o",
        "n"
      ],
      [
        "Ġ",
        "f"
      ],
      [
        "Ġs",
        "a"
      ],
      [
        "a",
        "s"
      ],
      [
        "i",
        "s"
      ],
      [
        "Ġ",
        "he"
      ],
      [
        "Ġ",
        "it"
      ],
      [
        "Ġo",
        "f"
      ],
      [
        "o",
        "w"
      ],
      [
        "Ġ",
        "âĢľ"
      ],
      [
        "a",
        "r"
      ],
      [
        "l",
        "e"
      ],
      [
        "o",
        "r"
      ],
      [
        "l",
        "i"
      ],
      [
        "Ġs",
        "he"
      ],
      [
        "Ġ",
        "in"
      ],
      [
        "a",
        "t"
      ],
      [
        "ha",
        "t"
      ],
      [
        "Ġ",
        "g"
      ],
      [
        "Ġ",
        "n"
      ],
      [
        "Ġsa",
        "id"
      ],
      [
        "s",
        "e"
      ],
      [
        "y",
        "ou"
      ],
      [
        "Ġb",
        "e"
      ],
      [
        "a",
        "n"
      ],
      [
        ",",
        "âĢĿ"
      ],
      [
        "Ġ",
        "A"
      ],
      [
        "Ġ",
        "p"
      ],
      [
        "li",
        "ce"
      ],
      [
        "Ġ",
        "ha"
      ],
      [
        "Ġ",
        "Ġ"
      ],
      [
        "Ġ",
        "you"
      ],
      [
        "l",
        "y"
      ],
      [
        "o",
        "t"
      ],
      [
        "Ġt",
        "h"
      ],
      [
        "Ġ",
        "I"
      ],
      [
        "m",
        "e"
      ],
      [
        "s",
        "t"
      ],
      [
        "v",
        "er"
      ],
      [
        "Ġw",
        "as"
      ],
      [
        "Ġo",
        "n"
      ],
      [
        "l",
        "d"
      ],
      [
        "ĠA",
        "lice"
      ],
      [
        "u",
        "t"
      ],
      [
        "Ġ",
        "h"
      ],
      [
        "Ġhe",
        "r"
      ],
      [
        "g",
        "h"
      ],
      [
        "!",
        "âĢĿ"
      ],
      [
        "Ġ",
        "e"
      ],
      [
        "Ġa",
        "s"
      ],
      [
        "ou",
        "t"
      ],
      [
        "e",
        "s"
      ],
      [
        "o",
        "o"
      ],
      [
        "âĢ",
        "Ķ"
      ],
      [
        "c",
        "h"
      ],
      [
        "u",
        "r"
      ],
      [
        "Ġt",
        "hat"
      ],
      [
        "Ġs",
        "o"
      ],
      [
        "en",
        "t"
      ],
      [
        "Ġ",
        "u"
      ],
      [
        "e",
        "t"
      ],
      [
        "v",
        "e"
      ],
      [
        "gh",
        "t"
      ],
      [
        "ou",
        "ld"
      ],
      [
        "Ġ",
        "r"
      ],
      [
        "it",
        "h"
      ],
      [
        "t",
        "le"
      ],
      [
        "a",
        "d"
      ],
      [
        "k",
        "e"
      ],
      [
        "Ġa",
        "t"
      ],
      [
        "t",
        "er"
      ],
      [
        "a",
        "y"
      ],
      [
        "T",
        "he"
      ],
      [
        "Ġw",
        "ith"
      ],
      [
        ".",
        "âĢĿ"
      ],
      [
        "Ġ",
        "re"
      ],
      [
        "t",
        "he"
      ],
      [
        "i",
        "r"
      ],
      [
        "c",
        "k"
      ],
      [
        "Ġha",
        "d"
      ],
      [
        "ver",
        "y"
      ],
      [
        "Ġ",
        "_"
      ],
      [
        "e",
        "e"
      ],
      [
        "Ġa",
        "n"
      ],
      [
        "Ġn",
        "ot"
      ],
      [
        "Ġa",
        "ll"
      ],
      [
        "Ġ",
        "M"
      ],
      [
        "Ġw",
        "h"
      ],
      [
        "?",
        "âĢĿ"
      ],
      [
        "r",
        "i"
      ],
      [
        "oo",
        "k"
      ],
      [
        "a",
        "nd"
      ],
      [
        "l",
        "f"
      ],
      [
        "Ġ",
        "k"
      ],
      [
        "Ġf",
        "or"
      ],
      [
        "a",
        "in"
      ],
      [
        "e",
        "a"
      ],
      [
        "i",
        "f"
      ],
      [
        "t",
        "o"
      ],
      [
        "i",
        "ll"
      ],
      [
        "t",
        "h"
      ],
      [
        "i",
        "m"
      ],
      [
        "it",
        "tle"
      ],
      [
        "q",
        "u"
      ],
      [
        "Ġ",
        "H"
      ],
      [
        "Ġd",
        "o"
      ],
      [
        "ow",
        "n"
      ],
      [
        "a",
        "b"
      ],
      [
        "r",
        "y"
      ],
      [
        "Ġu",
        "p"
      ],
      [
        "a",
        "l"
      ],
      [
        "se",
        "lf"
      ],
      [
        "Ġ",
        "D"
      ],
      [
        "Ġ",
        "very"
      ],
      [
        "r",
        "o"
      ],
      [
        "he",
        "r"
      ],
      [
        "Ġthe",
        "y"
      ],
      [
        "e",
        "ll"
      ],
      [
        "Ġn",
        "e"
      ],
      [
        "g",
        "e"
      ],
      [
        "Ġ",
        "out"
      ],
      [
        "Ġk",
        "n"
      ],
      [
        "p",
        "p"
      ],
      [
        "Ġl",
        "ittle"
      ],
      [
        "u",
        "st"
      ],
      [
        "Ġs",
        "u"
      ],
      [
        "i",
        "on"
      ],
      [
        "Ġl",
        "i"
      ],
      [
        "Ġs",
        "h"
      ],
      [
        "Ġth",
        "is"
      ],
      [
        "Ġb",
        "ut"
      ],
      [
        "Ġ",
        "j"
      ],
      [
        "ĠĠ",
        "Ġ"
      ],
      [
        "ou",
        "se"
      ],
      [
        "it",
        "e"
      ],
      [
        "a",
        "ll"
      ],
      [
        "Ġs",
        "ee"
      ],
      [
        "Ġm",
        "e"
      ],
      [
        "ou",
        "nd"
      ],
      [
        "e",
        "en"
      ],
      [
        "er",
        "e"
      ],
      [
        "o",
        "re"
      ],
      [
        "Ġ",
        "is"
      ],
      [
        "ou",
        "ght"
      ],
      [
        "s",
        "s"
      ],
      [
        "ou",
        "r"
      ],
      [
        "Ġl",
        "ook"
      ],
      [
        "Ġd",
        "own"
      ],
      [
        "Ġh",
        "is"
      ],
      [
        "Ġ",
        "qu"
      ],
      [
        "in",
        "k"
      ],
      [
        "Ġ",
        "T"
      ],
      [
        "g",
        "ain"
      ],
      [
        "ar",
        "d"
      ],
      [
        "Ġ",
        "C"
      ],
      [
        "Ġa",
        "b"
      ],
      [
        "Ġbe",
        "g"
      ],
      [
        "i",
        "ght"
      ],
      [
        "Ġw",
        "hat"
      ],
      [
        "Ġon",
        "e"
      ],
      [
        "Ġs",
        "t"
      ],
      [
        "Ġw",
        "he"
      ],
      [
        "Ġkn",
        "ow"
      ],
      [
        "Ġli",
        "ke"
      ],
      [
        "e",
        "ar"
      ],
      [
        "Ġa",
        "gain"
      ],
      [
        "Ġw",
        "ere"
      ],
      [
        "Ġg",
        "o"
      ],
      [
        "Q",
        "u"
      ],
      [
        "i",
        "me"
      ],
      [
        "o",
        "ck"
      ],
      [
        "Ġab",
        "out"
      ],
      [
        "Ġthe",
        "m"
      ],
      [
        "i",
        "ce"
      ],
      [
        "W",
        "h"
      ],
      [
        "Ġw",
        "ent"
      ],
      [
        "Ġc",
        "ould"
      ],
      [
        "Ġn",
        "o"
      ],
      [
        "o",
        "me"
      ],
      [
        "Ċ",
        "Ċ"
      ],
      [
        "Ġ",
        "Qu"
      ],
      [
        "Ġw",
        "ould"
      ],
      [
        "Ġo",
        "r"
      ],
      [
        "on",
        "g"
      ],
      [
        "Ġth",
        "ought"
      ],
      [
        "a",
        "me"
      ],
      [
        "Ġ",
        "S"
      ],
      [
        "c",
        "t"
      ],
      [
        "Ġ",
        "v"
      ],
      [
        "Ġof",
        "f"
      ],
      [
        "Ġso",
        "me"
      ],
      [
        "c",
        "he"
      ],
      [
        "in",
        "d"
      ],
      [
        "Ġher",
        "self"
      ],
      [
        "ĠQu",
        "een"
      ],
      [
        "A",
        "lice"
      ],
      [
        "Ġd",
        "id"
      ],
      [
        "at",
        "ter"
      ],
      [
        "Ġha",
        "ve"
      ],
      [
        "Ġth",
        "ing"
      ],
      [
        "Ġ",
        "K"
      ],
      [
        "o",
        "m"
      ],
      [
        "u",
        "n"
      ],
      [
        "u",
        "s"
      ],
      [
        "Ġ",
        "if"
      ],
      [
        "ha",
        "n"
      ],
      [
        "er",
        "s"
      ],
      [
        "as",
        "t"
      ],
      [
        "Ġin",
        "to"
      ],
      [
        "t",
        "ing"
      ],
      [
        "Ġthe",
        "n"
      ],
      [
        "n",
        "e"
      ],
      [
        "Ġt",
        "ime"
      ],
      [
        "Ġsa",
        "y"
      ],
      [
        "Ġg",
        "r"
      ],
      [
        "Ġwhe",
        "n"
      ],
      [
        "on",
        "e"
      ],
      [
        "Ġthe",
        "re"
      ],
      [
        "re",
        "at"
      ],
      [
        "ur",
        "tle"
      ],
      [
        "the",
        "r"
      ],
      [
        "th",
        "ing"
      ],
      [
        "nd",
        "er"
      ],
      [
        "Ġg",
        "et"
      ],
      [
        "i",
        "l"
      ],
      [
        "ou",
        "s"
      ],
      [
        "Ġwh",
        "o"
      ],
      [
        "ĠK",
        "ing"
      ],
      [
        "u",
        "l"
      ],
      [
        "or",
        "t"
      ],
      [
        "an",
        "t"
      ],
      [
        "Ġyou",
        "r"
      ],
      [
        "ri",
        "ed"
      ],
      [
        "a",
        "re"
      ],
      [
        "e",
        "st"
      ],
      [
        "k",
        "ing"
      ],
      [
        "Ġm",
        "y"
      ],
      [
        "a",
        "ke"
      ],
      [
        "k",
        "ed"
      ],
      [
        "p",
        "h"
      ],
      [
        "Ġ",
        "G"
      ],
      [
        "Ġe",
        "x"
      ],
      [
        "ĠM",
        "ock"
      ],
      [
        "a",
        "m"
      ],
      [
        "u",
        "ch"
      ],
      [
        "Ġ",
        "*"
      ],
      [
        "Ġc",
        "an"
      ],
      [
        "Y",
        "ou"
      ],
      [
        "m",
        "b"
      ],
      [
        "Ġw",
        "or"
      ],
      [
        "Ġwh",
        "i"
      ],
      [
        "ry",
        "ph"
      ],
      [
        "ryph",
        "on"
      ],
      [
        "l",
        "ing"
      ],
      [
        "Ġs",
        "p"
      ],
      [
        "Ġhe",
        "ad"
      ],
      [
        "ĠH",
        "atter"
      ],
      [
        "b",
        "it"
      ],
      [
        "o",
        "ice"
      ],
      [
        "Ġt",
        "w"
      ],
      [
        "Ġb",
        "y"
      ],
      [
        "Ġit",
        "s"
      ],
      [
        "ab",
        "bit"
      ],
      [
        "ĠT",
        "urtle"
      ],
      [
        "ĠC",
        "at"
      ],
      [
        "u",
        "re"
      ],
      [
        "is",
        "h"
      ],
      [
        "ĠĠ",
        "ĠĠĠ"
      ],
      [
        "Ġan",
        "y"
      ],
      [
        "Ġqu",
        "ite"
      ],
      [
        "I",
        "t"
      ],
      [
        "Ġa",
        "f"
      ],
      [
        "Ġw",
        "ay"
      ],
      [
        "Ġm",
        "uch"
      ],
      [
        "Ġth",
        "ink"
      ],
      [
        "ir",
        "st"
      ],
      [
        "ĠG",
        "ryphon"
      ],
      [
        "n",
        "ing"
      ],
      [
        "o",
        "se"
      ],
      [
        "Ġf",
        "e"
      ],
      [
        "Ġre",
        "p"
      ],
      [
        "Ġbeg",
        "an"
      ],
      [
        "Ġv",
        "oice"
      ],
      [
        "i",
        "g"
      ],
      [
        "Ġ",
        "The"
      ],
      [
        "a",
        "ck"
      ],
      [
        "r",
        "a"
      ],
      [
        "Ġ",
        "R"
      ],
      [
        "Ġc",
        "h"
      ],
      [
        "Ġm",
        "ore"
      ],
      [
        "Ġd",
        "on"
      ],
      [
        "âĢĶ",
        "âĢĿ"
      ],
      [
        "d",
        "d"
      ],
      [
        "w",
        "ay"
      ],
      [
        "âĢ",
        "ĺ"
      ],
      [
        "ou",
        "gh"
      ],
      [
        "Ġto",
        "o"
      ],
      [
        "i",
        "ous"
      ],
      [
        "Ġ",
        "("
      ],
      [
        "Ġc",
        "on"
      ],
      [
        "Ġh",
        "im"
      ],
      [
        "s",
        "he"
      ],
      [
        "Ċ",
        "ĠĠĠ"
      ],
      [
        "Ġthe",
        "ir"
      ],
      [
        "re",
        "e"
      ],
      [
        "Ġh",
        "ow"
      ],
      [
        "es",
        "s"
      ],
      [
        "oo",
        "d"
      ],
      [
        "l",
        "ed"
      ],
      [
        "o",
        "d"
      ],
      [
        "Ġo",
        "ther"
      ],
      [
        "Ġg",
        "ot"
      ],
      [
        "Ġp",
        "o"
      ],
      [
        "ĠR",
        "abbit"
      ],
      [
        "W",
        "hat"
      ],
      [
        "t",
        "hat"
      ],
      [
        "Ġa",
        "l"
      ],
      [
        "Ġm",
        "ad"
      ],
      [
        "Ġm",
        "ust"
      ],
      [
        "Ġf",
        "irst"
      ],
      [
        "is",
        "t"
      ],
      [
        "or",
        "m"
      ],
      [
        "f",
        "ore"
      ],
      [
        "h",
        "ing"
      ],
      [
        "u",
        "che"
      ],
      [
        "Ġa",
        "re"
      ],
      [
        "Ġn",
        "ow"
      ],
      [
        "Ġne",
        "ver"
      ],
      [
        "Ġj",
        "ust"
      ],
      [
        "Ġlook",
        "ed"
      ],
      [
        "uche",
        "ss"
      ],
      [
        "a",
        "u"
      ],
      [
        "Ġs",
        "ha"
      ],
      [
        "er",
        "p"
      ],
      [
        "Ġon",
        "ly"
      ],
      [
        "Ġr",
        "ound"
      ],
      [
        "e",
        "c"
      ],
      [
        "v",
        "en"
      ],
      [
        "Ġo",
        "ver"
      ],
      [
        "Ġc",
        "our"
      ],
      [
        "ĠD",
        "orm"
      ],
      [
        "ro",
        "m"
      ],
      [
        "ĠDorm",
        "ouse"
      ],
      [
        "b",
        "ut"
      ],
      [
        "p",
        "t"
      ],
      [
        "Ġ",
        "F"
      ],
      [
        "ĠD",
        "uchess"
      ],
      [
        "Ġsu",
        "ch"
      ],
      [
        "a",
        "ce"
      ],
      [
        "Ġl",
        "ar"
      ],
      [
        "ar",
        "t"
      ],
      [
        "ar",
        "ch"
      ],
      [
        "at",
        "e"
      ],
      [
        "ĠA",
        "nd"
      ],
      [
        "B",
        "ut"
      ],
      [
        "e",
        "ver"
      ],
      [
        "i",
        "c"
      ],
      [
        "Ġb",
        "ack"
      ],
      [
        "Ġc",
        "ame"
      ],
      [
        "Ġbe",
        "en"
      ],
      [
        "Ġsee",
        "m"
      ],
      [
        "Ġwhi",
        "ch"
      ],
      [
        "o",
        "ot"
      ],
      [
        "Ġ",
        "Wh"
      ],
      [
        "Ġt",
        "ur"
      ],
      [
        "Ġg",
        "reat"
      ],
      [
        "Ġsh",
        "ould"
      ],
      [
        "O",
        "h"
      ],
      [
        "b",
        "e"
      ],
      [
        "e",
        "p"
      ],
      [
        "i",
        "re"
      ],
      [
        "Ġa",
        "r"
      ],
      [
        "Ġw",
        "ell"
      ],
      [
        "en",
        "ce"
      ],
      [
        "Ġm",
        "in"
      ],
      [
        "Ġl",
        "ong"
      ],
      [
        "Ġhe",
        "re"
      ],
      [
        "Ġp",
        "l"
      ],
      [
        "Ġe",
        "y"
      ],
      [
        "Ġu",
        "s"
      ],
      [
        "Ġaf",
        "ter"
      ],
      [
        "a",
        "g"
      ],
      [
        "a",
        "ve"
      ],
      [
        "i",
        "ly"
      ],
      [
        "r",
        "ow"
      ],
      [
        "Ġ",
        "y"
      ],
      [
        "Ġto",
        "ne"
      ],
      [
        "le",
        "as"
      ],
      [
        "at",
        "her"
      ],
      [
        "p",
        "er"
      ],
      [
        "x",
        "t"
      ],
      [
        "Ġ",
        "L"
      ],
      [
        "Ġc",
        "ur"
      ],
      [
        "Ġl",
        "ast"
      ],
      [
        "an",
        "ce"
      ],
      [
        "Ġp",
        "ut"
      ],
      [
        "ab",
        "le"
      ],
      [
        "o",
        "f"
      ],
      [
        "u",
        "ll"
      ],
      [
        "Ġ",
        "âĢĺ"
      ],
      [
        "ĠĠ",
        "ĠĠ"
      ],
      [
        "Ġre",
        "m"
      ],
      [
        "ĠM",
        "arch"
      ],
      [
        "d",
        "s"
      ],
      [
        "o",
        "p"
      ],
      [
        "o",
        "nder"
      ],
      [
        "Ġ",
        "P"
      ],
      [
        "he",
        "d"
      ],
      [
        "as",
        "s"
      ],
      [
        "Ġha",
        "nd"
      ],
      [
        "ot",
        "her"
      ],
      [
        "ĠH",
        "are"
      ],
      [
        "om",
        "ent"
      ],
      [
        "e",
        "nd"
      ],
      [
        "v",
        "es"
      ],
      [
        "Ġm",
        "an"
      ],
      [
        "Ġl",
        "e"
      ],
      [
        "Ġf",
        "rom"
      ],
      [
        "Ġhe",
        "ard"
      ],
      [
        "Ġg",
        "l"
      ],
      [
        "Ġbe",
        "fore"
      ],
      [
        "ur",
        "y"
      ],
      [
        "Ġr",
        "ight"
      ],
      [
        "im",
        "p"
      ],
      [
        "Ġlar",
        "ge"
      ],
      [
        "A",
        "nd"
      ],
      [
        "u",
        "p"
      ],
      [
        "Ġ",
        "ke"
      ],
      [
        "id",
        "e"
      ],
      [
        "li",
        "ed"
      ],
      [
        "at",
        "ion"
      ],
      [
        "Ġon",
        "ce"
      ],
      [
        "ill",
        "ar"
      ],
      [
        "Ġdo",
        "or"
      ],
      [
        "Ġtw",
        "o"
      ],
      [
        "Ġmad",
        "e"
      ],
      [
        "erp",
        "illar"
      ],
      [
        "e",
        "ct"
      ],
      [
        "Ġc",
        "at"
      ],
      [
        "en",
        "ed"
      ],
      [
        "Ġd",
        "ear"
      ],
      [
        "Ġf",
        "ound"
      ],
      [
        "Ġmin",
        "ut"
      ],
      [
        "g",
        "et"
      ],
      [
        "l",
        "t"
      ],
      [
        "n",
        "ed"
      ],
      [
        "v",
        "ing"
      ],
      [
        "Ġt",
        "al"
      ],
      [
        "Ġa",
        "m"
      ],
      [
        "Ġw",
        "a"
      ],
      [
        "Ġb",
        "ot"
      ],
      [
        "Ġm",
        "ight"
      ],
      [
        "Ġm",
        "oment"
      ],
      [
        "Ġd",
        "ay"
      ],
      [
        "ĠM",
        "ouse"
      ],
      [
        "Ġlook",
        "ing"
      ],
      [
        "mb",
        "er"
      ],
      [
        "ĠCat",
        "erpillar"
      ],
      [
        "Ġrep",
        "lied"
      ],
      [
        "od",
        "y"
      ],
      [
        "Ġey",
        "es"
      ],
      [
        "E",
        "R"
      ],
      [
        "i",
        "ld"
      ],
      [
        "o",
        "ld"
      ],
      [
        "r",
        "u"
      ],
      [
        "Ġt",
        "ell"
      ],
      [
        "Ġc",
        "han"
      ],
      [
        "Ġm",
        "ake"
      ],
      [
        "on",
        "s"
      ],
      [
        "Ġh",
        "ur"
      ],
      [
        "Ġu",
        "n"
      ],
      [
        "Ġnot",
        "hing"
      ],
      [
        "Ġne",
        "ar"
      ],
      [
        "Ġne",
        "xt"
      ],
      [
        "Ġbeg",
        "in"
      ],
      [
        "h",
        "is"
      ],
      [
        "i",
        "gh"
      ],
      [
        "Ġ",
        "B"
      ],
      [
        "Ġ",
        "en"
      ],
      [
        "Ġt",
        "ry"
      ],
      [
        "Ġt",
        "han"
      ],
      [
        "Ġa",
        "dd"
      ],
      [
        "Ġw",
        "on"
      ],
      [
        "Ġc",
        "ome"
      ],
      [
        "Ġf",
        "ind"
      ],
      [
        "Ġth",
        "ree"
      ],
      [
        "Ġu",
        "nder"
      ],
      [
        "Ġup",
        "on"
      ],
      [
        "Ġthing",
        "s"
      ],
      [
        "Ġseem",
        "ed"
      ],
      [
        "Ġrem",
        "ar"
      ],
      [
        "A",
        "P"
      ],
      [
        "H",
        "AP"
      ],
      [
        "T",
        "hat"
      ],
      [
        "T",
        "ER"
      ],
      [
        "w",
        "as"
      ],
      [
        "Ġa",
        "way"
      ],
      [
        "it",
        "ing"
      ],
      [
        "Ġc",
        "l"
      ],
      [
        "is",
        "e"
      ],
      [
        "le",
        "s"
      ],
      [
        "or",
        "y"
      ],
      [
        "Ġp",
        "leas"
      ],
      [
        "Ġe",
        "very"
      ],
      [
        "Ġj",
        "ury"
      ],
      [
        "all",
        "y"
      ],
      [
        "Ġme",
        "an"
      ],
      [
        "ard",
        "en"
      ],
      [
        "Ġgo",
        "ing"
      ],
      [
        "Ġpo",
        "or"
      ],
      [
        "Ġcour",
        "se"
      ],
      [
        "HAP",
        "TER"
      ],
      [
        "H",
        "ow"
      ],
      [
        "N",
        "o"
      ],
      [
        "W",
        "ell"
      ],
      [
        "a",
        "k"
      ],
      [
        "b",
        "ody"
      ],
      [
        "e",
        "at"
      ],
      [
        "i",
        "ve"
      ],
      [
        "Ġ",
        "E"
      ],
      [
        "Ġt",
        "re"
      ],
      [
        "Ġw",
        "onder"
      ],
      [
        "Ġg",
        "ood"
      ],
      [
        "Ġg",
        "arden"
      ],
      [
        "oo",
        "l"
      ],
      [
        "oo",
        "m"
      ],
      [
        "Ġso",
        "on"
      ],
      [
        "ri",
        "ght"
      ],
      [
        "ĠS",
        "he"
      ],
      [
        "Ġgr",
        "ow"
      ],
      [
        "Ġtoo",
        "k"
      ],
      [
        "Ġadd",
        "ed"
      ],
      [
        "O",
        "f"
      ],
      [
        "a",
        "w"
      ],
      [
        "a",
        "ge"
      ],
      [
        "i",
        "e"
      ],
      [
        "n",
        "g"
      ],
      [
        "n",
        "ot"
      ],
      [
        "p",
        "l"
      ],
      [
        "p",
        "s"
      ],
      [
        "Ġt",
        "ea"
      ],
      [
        "Ġs",
        "m"
      ],
      [
        "in",
        "e"
      ],
      [
        "Ġw",
        "r"
      ],
      [
        "Ġw",
        "ill"
      ],
      [
        "Ġf",
        "l"
      ],
      [
        "Ġsa",
        "me"
      ],
      [
        "Ġr",
        "ather"
      ],
      [
        "The",
        "re"
      ],
      [
        "Ġwith",
        "out"
      ],
      [
        "Ġre",
        "ad"
      ],
      [
        "ure",
        "s"
      ],
      [
        "Ġsha",
        "ll"
      ],
      [
        "d",
        "e"
      ],
      [
        "e",
        "m"
      ],
      [
        "u",
        "m"
      ],
      [
        "Ġs",
        "ort"
      ],
      [
        "Ġw",
        "ish"
      ],
      [
        "Ġo",
        "ld"
      ],
      [
        "re",
        "ad"
      ],
      [
        "Ġp",
        "e"
      ],
      [
        "Ġan",
        "other"
      ],
      [
        "Ġget",
        "ting"
      ],
      [
        "est",
        "ion"
      ],
      [
        "au",
        "se"
      ],
      [
        "ĠWh",
        "ite"
      ],
      [
        "a",
        "id"
      ],
      [
        "i",
        "z"
      ],
      [
        "o",
        "st"
      ],
      [
        "o",
        "ke"
      ],
      [
        "t",
        "ain"
      ],
      [
        "v",
        "ed"
      ],
      [
        "Ġs",
        "l"
      ],
      [
        "Ġw",
        "e"
      ],
      [
        "it",
        "y"
      ],
      [
        "Ġo",
        "p"
      ],
      [
        "âĢĻ",
        "âĢĿ"
      ],
      [
        "Ġc",
        "ried"
      ],
      [
        "Ġha",
        "r"
      ],
      [
        "Ġha",
        "lf"
      ],
      [
        "Ġha",
        "pp"
      ],
      [
        "me",
        "mber"
      ],
      [
        "Ġu",
        "se"
      ],
      [
        "Ġre",
        "member"
      ],
      [
        "Ġdo",
        "es"
      ],
      [
        "Wh",
        "y"
      ],
      [
        "Ġwor",
        "ds"
      ],
      [
        "Ġfe",
        "lt"
      ],
      [
        "Ġar",
        "m"
      ],
      [
        "ull",
        "y"
      ],
      [
        "a",
        "h"
      ],
      [
        "d",
        "ly"
      ],
      [
        "f",
        "ul"
      ],
      [
        "i",
        "ck"
      ],
      [
        "Ġ",
        "W"
      ],
      [
        "Ġt",
        "ill"
      ],
      [
        "ou",
        "p"
      ],
      [
        "re",
        "d"
      ],
      [
        "Ġf",
        "an"
      ],
      [
        "Ġhe",
        "ar"
      ],
      [
        "le",
        "ep"
      ],
      [
        "Ġp",
        "u"
      ],
      [
        "Ġh",
        "ouse"
      ],
      [
        "Ġe",
        "at"
      ],
      [
        "Ġe",
        "ver"
      ],
      [
        "Ġfe",
        "et"
      ],
      [
        "Ġch",
        "ild"
      ],
      [
        "ious",
        "ly"
      ],
      [
        "ec",
        "ut"
      ],
      [
        "Ġy",
        "et"
      ],
      [
        "Ġcur",
        "ious"
      ],
      [
        "b",
        "le"
      ],
      [
        "e",
        "l"
      ],
      [
        "f",
        "t"
      ],
      [
        "f",
        "ully"
      ],
      [
        "h",
        "o"
      ],
      [
        "s",
        "h"
      ],
      [
        "Ġt",
        "ried"
      ],
      [
        "Ġs",
        "et"
      ],
      [
        "Ġw",
        "al"
      ],
      [
        "er",
        "ed"
      ],
      [
        "Ġb",
        "r"
      ],
      [
        "Ġc",
        "all"
      ],
      [
        "Ġf",
        "in"
      ],
      [
        "Ġf",
        "ace"
      ],
      [
        "Ġbe",
        "c"
      ],
      [
        "Ġbe",
        "t"
      ],
      [
        "Ġbe",
        "ing"
      ],
      [
        "Ġp",
        "ro"
      ],
      [
        "Ġe",
        "nd"
      ],
      [
        "Ġe",
        "ven"
      ],
      [
        "ent",
        "ly"
      ],
      [
        "ee",
        "p"
      ],
      [
        "ea",
        "k"
      ],
      [
        "ĠH",
        "ow"
      ],
      [
        "Ġsu",
        "re"
      ],
      [
        "Ġrep",
        "eat"
      ],
      [
        "dd",
        "en"
      ],
      [
        "C",
        "ome"
      ],
      [
        "I",
        "f"
      ],
      [
        "S",
        "o"
      ],
      [
        "S",
        "he"
      ],
      [
        "a",
        "ct"
      ],
      [
        "a",
        "il"
      ],
      [
        "d",
        "v"
      ],
      [
        "f",
        "or"
      ],
      [
        "g",
        "ed"
      ],
      [
        "n",
        "ow"
      ],
      [
        "o",
        "ll"
      ],
      [
        "t",
        "en"
      ],
      [
        "Ġt",
        "able"
      ],
      [
        "he",
        "re"
      ],
      [
        "Ġs",
        "n"
      ],
      [
        "Ġs",
        "ide"
      ],
      [
        "er",
        "tain"
      ],
      [
        "ha",
        "ps"
      ],
      [
        "re",
        "am"
      ],
      [
        "Ġb",
        "it"
      ],
      [
        "Ġc",
        "om"
      ],
      [
        "Ġf",
        "ee"
      ],
      [
        "is",
        "hed"
      ],
      [
        "Ġg",
        "u"
      ],
      [
        "Ġp",
        "art"
      ],
      [
        "Ġe",
        "ar"
      ],
      [
        "Ġas",
        "ked"
      ],
      [
        "The",
        "n"
      ],
      [
        "if",
        "f"
      ],
      [
        "if",
        "ul"
      ],
      [
        "Ġqu",
        "estion"
      ],
      [
        "us",
        "h"
      ],
      [
        "Ġwhi",
        "le"
      ],
      [
        "Ġsp",
        "oke"
      ],
      [
        "Ġminut",
        "e"
      ],
      [
        ".",
        ")"
      ],
      [
        "a",
        "ut"
      ],
      [
        "a",
        "ir"
      ],
      [
        "b",
        "st"
      ],
      [
        "c",
        "l"
      ],
      [
        "e",
        "w"
      ],
      [
        "i",
        "le"
      ],
      [
        "m",
        "an"
      ],
      [
        "s",
        "o"
      ],
      [
        "Ġw",
        "at"
      ],
      [
        "Ġl",
        "o"
      ],
      [
        "Ġl",
        "ow"
      ],
      [
        "Ġf",
        "ar"
      ],
      [
        "Ġsa",
        "t"
      ],
      [
        "Ġin",
        "ter"
      ],
      [
        "Ġha",
        "st"
      ],
      [
        "Ġr",
        "an"
      ],
      [
        "The",
        "y"
      ],
      [
        "Ġsu",
        "pp"
      ],
      [
        "Ġsome",
        "thing"
      ],
      [
        "Ġen",
        "ough"
      ],
      [
        "ak",
        "es"
      ],
      [
        ":",
        "âĢĶ"
      ],
      [
        "a",
        "c"
      ],
      [
        "a",
        "p"
      ],
      [
        "g",
        "s"
      ],
      [
        "s",
        "w"
      ],
      [
        "t",
        "ime"
      ],
      [
        "w",
        "hat"
      ],
      [
        "he",
        "n"
      ],
      [
        "Ġa",
        "ir"
      ],
      [
        "Ġs",
        "it"
      ],
      [
        "Ġs",
        "il"
      ],
      [
        "er",
        "haps"
      ],
      [
        "re",
        "ss"
      ],
      [
        "Ġc",
        "ro"
      ],
      [
        "Ġc",
        "ertain"
      ],
      [
        "id",
        "ea"
      ],
      [
        "Ġl",
        "ess"
      ],
      [
        "Ġl",
        "ist"
      ],
      [
        "Ġd",
        "iff"
      ],
      [
        "Ġf",
        "oot"
      ],
      [
        "Ġh",
        "igh"
      ],
      [
        "Ġe",
        "l"
      ],
      [
        "ur",
        "p"
      ],
      [
        "Ġan",
        "g"
      ],
      [
        "ea",
        "l"
      ],
      [
        "if",
        "e"
      ],
      [
        "ab",
        "y"
      ],
      [
        "pp",
        "ed"
      ],
      [
        "Ġsu",
        "dden"
      ],
      [
        "Ġex",
        "ecut"
      ],
      [
        "Ġany",
        "thing"
      ],
      [
        "be",
        "g"
      ],
      [
        "Ġpl",
        "ay"
      ],
      [
        "Ġle",
        "ft"
      ],
      [
        "Ġhast",
        "ily"
      ],
      [
        "_",
        ",âĢĿ"
      ],
      [
        "a",
        "ch"
      ],
      [
        "b",
        "b"
      ],
      [
        "d",
        "ge"
      ],
      [
        "n",
        "ess"
      ],
      [
        "o",
        "in"
      ],
      [
        "o",
        "nd"
      ],
      [
        "o",
        "es"
      ],
      [
        "r",
        "ough"
      ],
      [
        "w",
        "ith"
      ],
      [
        "x",
        "iously"
      ],
      [
        "z",
        "z"
      ],
      [
        "Ġ",
        "ought"
      ],
      [
        "Ġt",
        "ri"
      ],
      [
        "Ġt",
        "ake"
      ],
      [
        "Ġs",
        "w"
      ],
      [
        "Ġs",
        "een"
      ],
      [
        "in",
        "ah"
      ],
      [
        "ou",
        "d"
      ],
      [
        "it",
        "ed"
      ],
      [
        "re",
        "n"
      ],
      [
        "re",
        "t"
      ],
      [
        "Ġm",
        "or"
      ],
      [
        "Ġd",
        "one"
      ],
      [
        "Ġin",
        "de"
      ],
      [
        "Ġg",
        "ave"
      ],
      [
        "you",
        "r"
      ],
      [
        "ĠI",
        "t"
      ],
      [
        "out",
        "h"
      ],
      [
        "Ġkn",
        "ew"
      ],
      [
        "Ġdid",
        "n"
      ],
      [
        "ra",
        "w"
      ],
      [
        "Ġtur",
        "ned"
      ],
      [
        "get",
        "her"
      ],
      [
        "Ġtal",
        "k"
      ],
      [
        "Ġbot",
        "h"
      ],
      [
        "ĠB",
        "ill"
      ],
      [
        "Ġsm",
        "all"
      ],
      [
        "um",
        "p"
      ],
      [
        "Ġdoes",
        "n"
      ],
      [
        "Ġbet",
        "ter"
      ],
      [
        "oll",
        "ow"
      ],
      [
        "Ġinde",
        "ed"
      ],
      [
        "N",
        "ot"
      ],
      [
        "T",
        "his"
      ],
      [
        "a",
        "pp"
      ],
      [
        "a",
        "king"
      ],
      [
        "c",
        "our"
      ],
      [
        "f",
        "us"
      ],
      [
        "h",
        "ind"
      ],
      [
        "i",
        "ch"
      ],
      [
        "l",
        "ittle"
      ],
      [
        "s",
        "ation"
      ],
      [
        "s",
        "aid"
      ],
      [
        "Ġ",
        "idea"
      ],
      [
        "he",
        "ad"
      ],
      [
        "Ġs",
        "iz"
      ],
      [
        "Ġw",
        "ant"
      ],
      [
        "Ġb",
        "us"
      ],
      [
        "Ġc",
        "ook"
      ],
      [
        "id",
        "ly"
      ],
      [
        "Ġm",
        "ay"
      ],
      [
        "Ġm",
        "ouse"
      ],
      [
        "Ġm",
        "outh"
      ],
      [
        "Ġl",
        "ea"
      ],
      [
        "Ġd",
        "ance"
      ],
      [
        "Ġf",
        "ollow"
      ],
      [
        "Ġsa",
        "w"
      ],
      [
        "Ġit",
        "self"
      ],
      [
        "li",
        "e"
      ],
      [
        "Ġg",
        "ame"
      ],
      [
        "Ġg",
        "one"
      ],
      [
        "Ġr",
        "u"
      ],
      [
        "Ġr",
        "oom"
      ],
      [
        "the",
        "y"
      ],
      [
        "ee",
        "z"
      ],
      [
        "ĠM",
        "a"
      ],
      [
        "qu",
        "et"
      ],
      [
        "ear",
        "s"
      ],
      [
        "Wh",
        "o"
      ],
      [
        "ĊĊ",
        "ĊĊ"
      ],
      [
        "Ġwho",
        "le"
      ],
      [
        "ul",
        "t"
      ],
      [
        "way",
        "s"
      ],
      [
        "Ġcon",
        "t"
      ],
      [
        "od",
        "o"
      ],
      [
        "Ġcour",
        "t"
      ],
      [
        "op",
        "le"
      ],
      [
        "Ġtal",
        "king"
      ],
      [
        "Ġtry",
        "ing"
      ],
      [
        "Ġremar",
        "k"
      ],
      [
        "Ġcl",
        "ose"
      ],
      [
        "pl",
        "ain"
      ],
      [
        "Ġhapp",
        "en"
      ],
      [
        "A",
        "s"
      ],
      [
        "C",
        "HAPTER"
      ],
      [
        "H",
        "e"
      ],
      [
        "N",
        "ow"
      ],
      [
        "Y",
        "es"
      ],
      [
        "e",
        "er"
      ],
      [
        "i",
        "o"
      ],
      [
        "i",
        "ge"
      ],
      [
        "i",
        "ers"
      ],
      [
        "j",
        "est"
      ],
      [
        "n",
        "o"
      ],
      [
        "w",
        "h"
      ],
      [
        "y",
        "ing"
      ],
      [
        "Ġ",
        "O"
      ],
      [
        "Ġ",
        "imp"
      ],
      [
        "Ġa",
        "c"
      ],
      [
        "Ġa",
        "dv"
      ],
      [
        "Ġs",
        "c"
      ],
      [
        "Ġs",
        "ound"
      ],
      [
        "it",
        "her"
      ],
      [
        "âĢľ",
        "_"
      ],
      [
        "Ġb",
        "aby"
      ],
      [
        "Ġc",
        "reat"
      ],
      [
        "id",
        "d"
      ],
      [
        "Ġl",
        "et"
      ],
      [
        "Ġl",
        "ear"
      ],
      [
        "Ġd",
        "ire"
      ],
      [
        "Ġn",
        "ame"
      ],
      [
        "Ġbe",
        "aut"
      ],
      [
        "Ġp",
        "ass"
      ],
      [
        "Ġp",
        "erhaps"
      ],
      [
        "Ġas",
        "k"
      ],
      [
        "Ġwh",
        "is"
      ],
      [
        "th",
        "ink"
      ],
      [
        "ab",
        "out"
      ],
      [
        "ĠD",
        "odo"
      ],
      [
        "her",
        "self"
      ],
      [
        "Ġsh",
        "ri"
      ],
      [
        "Ġj",
        "oin"
      ],
      [
        "ard",
        "s"
      ],
      [
        "ĠC",
        "HAPTER"
      ],
      [
        "Ġst",
        "ill"
      ],
      [
        "Ġwhe",
        "re"
      ],
      [
        "Ġwould",
        "n"
      ],
      [
        "ĠS",
        "o"
      ],
      [
        "che",
        "s"
      ],
      [
        "ort",
        "ant"
      ],
      [
        "Ġsp",
        "eak"
      ],
      [
        "Ġaf",
        "ra"
      ],
      [
        "ĠThe",
        "re"
      ],
      [
        "erp",
        "ent"
      ],
      [
        "Ġus",
        "ed"
      ],
      [
        "Ġhand",
        "s"
      ],
      [
        "Ġke",
        "pt"
      ],
      [
        "Ġcat",
        "s"
      ],
      [
        "Ġam",
        "ong"
      ],
      [
        "Ġchan",
        "ge"
      ],
      [
        "Ġhur",
        "ry"
      ],
      [
        "Ġbegin",
        "ning"
      ],
      [
        "Ġpleas",
        "e"
      ],
      [
        "Ġcall",
        "ed"
      ],
      [
        "Ġfin",
        "ished"
      ],
      [
        "Ġcertain",
        "ly"
      ],
      [
        "Ġel",
        "se"
      ],
      [
        "urp",
        "r"
      ],
      [
        "Ġsudden",
        "ly"
      ],
      [
        "Ġsiz",
        "e"
      ],
      [
        "ige",
        "on"
      ],
      [
        "jest",
        "y"
      ],
      [
        "Ġdire",
        "ct"
      ],
      [
        "Ġafra",
        "id"
      ],
      [
        "H",
        "ere"
      ],
      [
        "_",
        ","
      ],
      [
        "_",
        "âĢĿ"
      ],
      [
        "d",
        "ay"
      ],
      [
        "f",
        "ort"
      ],
      [
        "i",
        "ct"
      ],
      [
        "l",
        "p"
      ],
      [
        "o",
        "x"
      ],
      [
        "o",
        "ves"
      ],
      [
        "r",
        "ink"
      ],
      [
        "t",
        "ed"
      ],
      [
        "u",
        "ed"
      ],
      [
        "u",
        "ck"
      ],
      [
        "w",
        "o"
      ],
      [
        "w",
        "ould"
      ],
      [
        "Ġt",
        "r"
      ],
      [
        "Ġt",
        "im"
      ],
      [
        "Ġa",
        "pp"
      ],
      [
        "Ġs",
        "leep"
      ],
      [
        "Ġthe",
        "se"
      ],
      [
        "Ġw",
        "it"
      ],
      [
        "en",
        "se"
      ],
      [
        "Ġl",
        "ife"
      ],
      [
        "Ġd",
        "e"
      ],
      [
        "Ġd",
        "ou"
      ],
      [
        "Ġd",
        "eep"
      ],
      [
        "Ġd",
        "eal"
      ],
      [
        "Ġf",
        "all"
      ],
      [
        "is",
        "ed"
      ],
      [
        "is",
        "ter"
      ],
      [
        "ar",
        "k"
      ],
      [
        "Ġin",
        "st"
      ],
      [
        "at",
        "es"
      ],
      [
        "Ġbe",
        "hind"
      ],
      [
        "ver",
        "sation"
      ],
      [
        "Ġwas",
        "n"
      ],
      [
        "ch",
        "ing"
      ],
      [
        "Ġre",
        "as"
      ],
      [
        "Ġre",
        "st"
      ],
      [
        "ea",
        "red"
      ],
      [
        "th",
        "is"
      ],
      [
        "ĠD",
        "inah"
      ],
      [
        "ĠS",
        "oup"
      ],
      [
        "che",
        "d"
      ],
      [
        "Ġsay",
        "ing"
      ],
      [
        "Ġsha",
        "r"
      ],
      [
        "oot",
        "man"
      ],
      [
        "Ġtur",
        "n"
      ],
      [
        "end",
        "ed"
      ],
      [
        "Ġminut",
        "es"
      ],
      [
        "Ġhur",
        "ried"
      ],
      [
        "Of",
        "f"
      ],
      [
        "Ġpe",
        "ople"
      ],
      [
        "Ġhar",
        "dly"
      ],
      [
        "Ġpu",
        "zz"
      ],
      [
        "ĠHow",
        "ever"
      ],
      [
        "Ġsn",
        "eez"
      ],
      [
        "Ġsupp",
        "ose"
      ],
      [
        "Ġlist",
        "en"
      ],
      [
        "ĠMa",
        "jesty"
      ],
      [
        "I",
        "I"
      ],
      [
        "W",
        "e"
      ],
      [
        "a",
        "le"
      ],
      [
        "e",
        "x"
      ],
      [
        "e",
        "ven"
      ],
      [
        "f",
        "ter"
      ],
      [
        "l",
        "ook"
      ],
      [
        "o",
        "or"
      ],
      [
        "s",
        "p"
      ],
      [
        "s",
        "ome"
      ],
      [
        "u",
        "mb"
      ],
      [
        "w",
        "n"
      ],
      [
        "Ġ",
        "But"
      ],
      [
        "Ġt",
        "ail"
      ],
      [
        "Ġt",
        "ears"
      ],
      [
        "Ġs",
        "ea"
      ],
      [
        "Ġs",
        "to"
      ],
      [
        "Ġs",
        "ig"
      ],
      [
        "Ġs",
        "urpr"
      ],
      [
        "Ġs",
        "ister"
      ],
      [
        "Ġo",
        "wn"
      ],
      [
        "en",
        "er"
      ],
      [
        "Ġm",
        "o"
      ],
      [
        "Ġm",
        "ind"
      ],
      [
        "Ġm",
        "atter"
      ],
      [
        "Ġf",
        "ell"
      ],
      [
        "Ġhe",
        "dge"
      ],
      [
        "ĠâĢľ",
        "âĢĶ"
      ],
      [
        "le",
        "t"
      ],
      [
        "Ġg",
        "ener"
      ],
      [
        "Ġbe",
        "lie"
      ],
      [
        "Ġp",
        "ie"
      ],
      [
        "Ġha",
        "ving"
      ],
      [
        "Ġth",
        "rough"
      ],
      [
        "Ġe",
        "ag"
      ],
      [
        "Ġre",
        "ally"
      ],
      [
        "the",
        "m"
      ],
      [
        "ir",
        "ds"
      ],
      [
        "Ġan",
        "sw"
      ],
      [
        "Ġan",
        "xiously"
      ],
      [
        "ri",
        "ly"
      ],
      [
        "ĠH",
        "e"
      ],
      [
        "pp",
        "er"
      ],
      [
        "Ġsh",
        "out"
      ],
      [
        "Ġqu",
        "eer"
      ],
      [
        "Ġgr",
        "in"
      ],
      [
        "ant",
        "ly"
      ],
      [
        "Ġwor",
        "d"
      ],
      [
        "Ġtw",
        "ink"
      ],
      [
        "pt",
        "ed"
      ],
      [
        "Ġtur",
        "ning"
      ],
      [
        "ĠP",
        "igeon"
      ],
      [
        "Ġman",
        "y"
      ],
      [
        "Ġgl",
        "ad"
      ],
      [
        "Ġke",
        "ep"
      ],
      [
        "Ġwa",
        "ited"
      ],
      [
        "Ġop",
        "ened"
      ],
      [
        "Ġwal",
        "ked"
      ],
      [
        "Ġbec",
        "ause"
      ],
      [
        "ress",
        "ed"
      ],
      [
        "Ġexecut",
        "ion"
      ],
      [
        "Ġtri",
        "al"
      ],
      [
        "Ġwit",
        "ness"
      ],
      [
        "Ġdou",
        "b"
      ],
      [
        "Ġreas",
        "on"
      ],
      [
        "Ġeag",
        "er"
      ],
      [
        ",",
        ")"
      ],
      [
        "D",
        "o"
      ],
      [
        "a",
        "gain"
      ],
      [
        "c",
        "on"
      ],
      [
        "c",
        "om"
      ],
      [
        "f",
        "f"
      ],
      [
        "g",
        "ot"
      ],
      [
        "i",
        "es"
      ],
      [
        "i",
        "am"
      ],
      [
        "k",
        "y"
      ],
      [
        "k",
        "now"
      ],
      [
        "l",
        "ow"
      ],
      [
        "n",
        "er"
      ],
      [
        "n",
        "ave"
      ],
      [
        "p",
        "o"
      ],
      [
        "r",
        "own"
      ],
      [
        "r",
        "oom"
      ],
      [
        "s",
        "id"
      ],
      [
        "s",
        "ent"
      ],
      [
        "v",
        "id"
      ],
      [
        "Ġ",
        "V"
      ],
      [
        "Ġs",
        "ing"
      ],
      [
        "Ġs",
        "ight"
      ],
      [
        "in",
        "ued"
      ],
      [
        "er",
        "ing"
      ],
      [
        "er",
        "ent"
      ],
      [
        "Ġo",
        "pp"
      ],
      [
        "âĢľ",
        "âĢĶ"
      ],
      [
        "ha",
        "d"
      ],
      [
        "ha",
        "nd"
      ],
      [
        "Ġb",
        "ook"
      ],
      [
        "Ġb",
        "right"
      ],
      [
        "Ġm",
        "ost"
      ],
      [
        "Ġm",
        "akes"
      ],
      [
        "Ġd",
        "ist"
      ],
      [
        "Ġd",
        "ec"
      ],
      [
        "Ġf",
        "ur"
      ],
      [
        "at",
        "i"
      ],
      [
        "Ġg",
        "ive"
      ],
      [
        "Ġbe",
        "st"
      ],
      [
        "Ġp",
        "ig"
      ],
      [
        "Ġp",
        "ool"
      ],
      [
        "Ġha",
        "ll"
      ],
      [
        "Ġh",
        "old"
      ],
      [
        "oo",
        "p"
      ],
      [
        "Ġso",
        "ld"
      ],
      [
        "Ġr",
        "un"
      ],
      [
        "Ġnot",
        "ic"
      ],
      [
        "Ġwh",
        "y"
      ],
      [
        "pp",
        "y"
      ],
      [
        "Ġwhe",
        "ther"
      ],
      [
        "Ġoff",
        "ended"
      ],
      [
        "Ġwor",
        "k"
      ],
      [
        "Ġhead",
        "s"
      ],
      [
        "Ġthink",
        "ing"
      ],
      [
        "Ġfe",
        "w"
      ],
      [
        "Ġal",
        "ways"
      ],
      [
        "au",
        "ght"
      ],
      [
        "art",
        "s"
      ],
      [
        "Ġpl",
        "ace"
      ],
      [
        "row",
        "d"
      ],
      [
        "ĠĠĠĠ",
        "ĠĠĠĠ"
      ],
      [
        "Ġgl",
        "oves"
      ],
      [
        "imp",
        "ortant"
      ],
      [
        "Ġbot",
        "tle"
      ],
      [
        "ru",
        "pted"
      ],
      [
        "Ġremar",
        "ked"
      ],
      [
        "aw",
        "s"
      ],
      [
        "Ġop",
        "en"
      ],
      [
        "Ġchild",
        "ren"
      ],
      [
        "Ġrepeat",
        "ed"
      ],
      [
        "Ġsit",
        "ting"
      ],
      [
        "Ġsil",
        "ence"
      ],
      [
        "Ġless",
        "ons"
      ],
      [
        "Ġcont",
        "inued"
      ],
      [
        "Ġlear",
        "n"
      ],
      [
        "Ġshar",
        "p"
      ],
      [
        "Ġbelie",
        "ve"
      ],
      [
        "Ġshout",
        "ed"
      ],
      [
        ")",
        ","
      ],
      [
        "W",
        "ould"
      ],
      [
        "W",
        "hen"
      ],
      [
        "c",
        "ed"
      ],
      [
        "c",
        "ould"
      ],
      [
        "c",
        "up"
      ],
      [
        "g",
        "o"
      ],
      [
        "g",
        "er"
      ],
      [
        "g",
        "ing"
      ],
      [
        "i",
        "et"
      ],
      [
        "l",
        "s"
      ],
      [
        "m",
        "ed"
      ],
      [
        "n",
        "ly"
      ],
      [
        "r",
        "ing"
      ],
      [
        "t",
        "one"
      ],
      [
        "Ġ",
        "N"
      ],
      [
        "Ġ",
        "ver"
      ],
      [
        "Ġ",
        "im"
      ],
      [
        "Ġ",
        "Oh"
      ],
      [
        "Ġs",
        "imp"
      ],
      [
        "Ġs",
        "erpent"
      ],
      [
        "ou",
        "n"
      ],
      [
        "Ġw",
        "ood"
      ],
      [
        "re",
        "w"
      ],
      [
        "Ġb",
        "at"
      ],
      [
        "Ġb",
        "ro"
      ],
      [
        "Ġto",
        "gether"
      ],
      [
        "Ġc",
        "he"
      ],
      [
        "Ġc",
        "ar"
      ],
      [
        "Ġc",
        "are"
      ],
      [
        "Ġc",
        "rowd"
      ],
      [
        "Ġl",
        "ying"
      ],
      [
        "Ġd",
        "is"
      ],
      [
        "Ġd",
        "ream"
      ],
      [
        "Ġf",
        "right"
      ],
      [
        "Ġf",
        "act"
      ],
      [
        "is",
        "s"
      ],
      [
        "Ġhe",
        "lp"
      ],
      [
        "ow",
        "ly"
      ],
      [
        "le",
        "ss"
      ],
      [
        "li",
        "ght"
      ],
      [
        "Ġn",
        "ice"
      ],
      [
        "an",
        "y"
      ],
      [
        "Ġp",
        "ers"
      ],
      [
        "Ġha",
        "s"
      ],
      [
        "Ġth",
        "ose"
      ],
      [
        "st",
        "and"
      ],
      [
        "Ġh",
        "op"
      ],
      [
        "Ġas",
        "leep"
      ],
      [
        "âĢĶ",
        "âĢĺ"
      ],
      [
        "Ġr",
        "a"
      ],
      [
        "Ġr",
        "ose"
      ],
      [
        "Ġr",
        "ate"
      ],
      [
        "Ġat",
        "t"
      ],
      [
        "the",
        "n"
      ],
      [
        "Ġwh",
        "ite"
      ],
      [
        "Ġwh",
        "iting"
      ],
      [
        "ill",
        "iam"
      ],
      [
        "Ġsu",
        "b"
      ],
      [
        "ion",
        "s"
      ],
      [
        "Ġli",
        "ve"
      ],
      [
        "Ġsh",
        "ook"
      ],
      [
        "Ġj",
        "ump"
      ],
      [
        "Ġagain",
        "st"
      ],
      [
        "Ġgo",
        "ld"
      ],
      [
        "Ġcould",
        "n"
      ],
      [
        "Ġno",
        "se"
      ],
      [
        "Ġor",
        "d"
      ],
      [
        "ind",
        "ow"
      ],
      [
        "ĠK",
        "nave"
      ],
      [
        "un",
        "ity"
      ],
      [
        "ne",
        "y"
      ],
      [
        "ort",
        "unity"
      ],
      [
        "Ġyour",
        "self"
      ],
      [
        "Ġex",
        "plain"
      ],
      [
        "Ġcon",
        "fus"
      ],
      [
        "Ġcon",
        "versation"
      ],
      [
        "ĠF",
        "or"
      ],
      [
        "ĠF",
        "ootman"
      ],
      [
        "ate",
        "ly"
      ],
      [
        "ire",
        "d"
      ],
      [
        "Ġle",
        "ast"
      ],
      [
        "Ġwa",
        "iting"
      ],
      [
        "Ġnear",
        "ly"
      ],
      [
        "Ġmean",
        "ing"
      ],
      [
        "Ġtre",
        "mb"
      ],
      [
        "Ġgrow",
        "ing"
      ],
      [
        "Ġread",
        "y"
      ],
      [
        "Ġsl",
        "ates"
      ],
      [
        "Ġsl",
        "owly"
      ],
      [
        "Ġhar",
        "d"
      ],
      [
        "Ġfan",
        "c"
      ],
      [
        "act",
        "ly"
      ],
      [
        "Ġfee",
        "ling"
      ],
      [
        "Ġpart",
        "y"
      ],
      [
        "ush",
        "room"
      ],
      [
        "bst",
        "er"
      ],
      [
        "Ġinter",
        "rupted"
      ],
      [
        "ac",
        "le"
      ],
      [
        "Ġcro",
        "quet"
      ],
      [
        "Ġdiff",
        "erent"
      ],
      [
        "Ġang",
        "rily"
      ],
      [
        "beg",
        "an"
      ],
      [
        "Ġmor",
        "al"
      ],
      [
        "Ġfollow",
        "ed"
      ],
      [
        "Ġcreat",
        "ures"
      ],
      [
        "idd",
        "le"
      ],
      [
        "Ġbeaut",
        "iful"
      ],
      [
        "Ġwhis",
        "per"
      ],
      [
        "Ġtim",
        "idly"
      ],
      [
        "Ġpuzz",
        "led"
      ],
      [
        "Ġhedge",
        "ho"
      ],
      [
        "Ġdoub",
        "t"
      ],
      [
        "vid",
        "ence"
      ],
      [
        "Ġopp",
        "ortunity"
      ],
      [
        "Ġsold",
        "iers"
      ],
      [
        "Ġnotic",
        "ed"
      ],
      [
        ".",
        "âĢĻâĢĿ"
      ],
      [
        "?",
        "_âĢĿ"
      ],
      [
        "I",
        "n"
      ],
      [
        "J",
        "ust"
      ],
      [
        "T",
        "urtle"
      ],
      [
        "_",
        ".âĢĿ"
      ],
      [
        "a",
        "v"
      ],
      [
        "c",
        "an"
      ],
      [
        "e",
        "k"
      ],
      [
        "g",
        "r"
      ],
      [
        "g",
        "row"
      ],
      [
        "h",
        "ow"
      ],
      [
        "i",
        "x"
      ],
      [
        "i",
        "ed"
      ],
      [
        "j",
        "ect"
      ],
      [
        "k",
        "en"
      ],
      [
        "m",
        "ost"
      ],
      [
        "o",
        "y"
      ],
      [
        "s",
        "ay"
      ],
      [
        "t",
        "s"
      ],
      [
        "t",
        "ur"
      ],
      [
        "t",
        "ory"
      ],
      [
        "u",
        "e"
      ],
      [
        "u",
        "mber"
      ],
      [
        "Ċ",
        "ĠĠĠĠĠĠĠĠ"
      ],
      [
        "Ġ",
        "our"
      ],
      [
        "Ġt",
        "ru"
      ],
      [
        "Ġt",
        "ired"
      ],
      [
        "he",
        "sh"
      ],
      [
        "Ġs",
        "ong"
      ],
      [
        "in",
        "ess"
      ],
      [
        "it",
        "s"
      ],
      [
        "er",
        "y"
      ],
      [
        "ha",
        "ve"
      ],
      [
        "Ġb",
        "reat"
      ],
      [
        "Ġto",
        "p"
      ],
      [
        "Ġc",
        "le"
      ],
      [
        "id",
        "ed"
      ],
      [
        "Ġm",
        "ar"
      ],
      [
        "Ġm",
        "iddle"
      ],
      [
        "ce",
        "ss"
      ],
      [
        "Ġd",
        "en"
      ],
      [
        "Ġd",
        "ry"
      ],
      [
        "Ġd",
        "read"
      ],
      [
        "Ġd",
        "raw"
      ],
      [
        "on",
        "ly"
      ],
      [
        "as",
        "ter"
      ],
      [
        "ar",
        "y"
      ],
      [
        "le",
        "m"
      ],
      [
        "an",
        "ch"
      ],
      [
        "Ġha",
        "ir"
      ],
      [
        "ut",
        "e"
      ],
      [
        "Ġe",
        "ach"
      ],
      [
        "Ġe",
        "ither"
      ],
      [
        "âĢĶ",
        "âĢľ"
      ],
      [
        "ch",
        "ool"
      ],
      [
        "Ġso",
        "lem"
      ],
      [
        "ent",
        "ure"
      ],
      [
        "ent",
        "ures"
      ],
      [
        "et",
        "ch"
      ],
      [
        "the",
        "ir"
      ],
      [
        "Ġhad",
        "n"
      ],
      [
        "very",
        "thing"
      ],
      [
        "Ġk",
        "ind"
      ],
      [
        "Ġfor",
        "got"
      ],
      [
        "ea",
        "king"
      ],
      [
        "im",
        "ney"
      ],
      [
        "ĠH",
        "ear"
      ],
      [
        "al",
        "king"
      ],
      [
        "Ġne",
        "ck"
      ],
      [
        "Ġsh",
        "ut"
      ],
      [
        "Ġsh",
        "oes"
      ],
      [
        "Ġis",
        "n"
      ],
      [
        "ss",
        "i"
      ],
      [
        "ard",
        "on"
      ],
      [
        "Ġst",
        "ood"
      ],
      [
        "Ġst",
        "ory"
      ],
      [
        "Ġgo",
        "es"
      ],
      [
        "ock",
        "et"
      ],
      [
        "Ġv",
        "enture"
      ],
      [
        "Ġgr",
        "own"
      ],
      [
        "ul",
        "ar"
      ],
      [
        "Ġex",
        "cl"
      ],
      [
        "am",
        "ing"
      ],
      [
        "Ġwor",
        "ld"
      ],
      [
        "Ġch",
        "in"
      ],
      [
        "Ġcon",
        "sid"
      ],
      [
        "Ġlar",
        "ger"
      ],
      [
        "ic",
        "ult"
      ],
      [
        "ĠWh",
        "y"
      ],
      [
        "be",
        "fore"
      ],
      [
        "Ġar",
        "g"
      ],
      [
        "Ġey",
        "e"
      ],
      [
        "Ġus",
        "u"
      ],
      [
        "leas",
        "e"
      ],
      [
        "of",
        "f"
      ],
      [
        "end",
        "ing"
      ],
      [
        "Ġman",
        "age"
      ],
      [
        "Ġgl",
        "ass"
      ],
      [
        "up",
        "id"
      ],
      [
        "Ġke",
        "y"
      ],
      [
        "ons",
        "ense"
      ],
      [
        "ĠB",
        "ea"
      ],
      [
        "Ġevery",
        "thing"
      ],
      [
        "ĠE",
        "ng"
      ],
      [
        "Ġtre",
        "es"
      ],
      [
        "Ġgarden",
        "ers"
      ],
      [
        "em",
        "per"
      ],
      [
        "ĠW",
        "illiam"
      ],
      [
        "Ġpu",
        "ppy"
      ],
      [
        "Ġcom",
        "ing"
      ],
      [
        "Ġfee",
        "l"
      ],
      [
        "bst",
        "ers"
      ],
      [
        "Ġdiff",
        "icult"
      ],
      [
        "cour",
        "t"
      ],
      [
        "Ġbus",
        "iness"
      ],
      [
        "Ġlea",
        "ve"
      ],
      [
        "io",
        "l"
      ],
      [
        "Ġapp",
        "eared"
      ],
      [
        "Ġde",
        "light"
      ],
      [
        "Ġgener",
        "ally"
      ],
      [
        "Ġpie",
        "ce"
      ],
      [
        "Ġansw",
        "er"
      ],
      [
        "Ġeager",
        "ly"
      ],
      [
        "Ġdist",
        "ance"
      ],
      [
        "ati",
        "ently"
      ],
      [
        "Ġgold",
        "en"
      ],
      [
        "hesh",
        "ire"
      ],
      [
        "ĠEng",
        "l"
      ],
      [
        "*",
        "*"
      ],
      [
        "D",
        "on"
      ],
      [
        "L",
        "et"
      ],
      [
        "W",
        "ill"
      ],
      [
        "_",
        "âĢĶ"
      ],
      [
        "a",
        "im"
      ],
      [
        "b",
        "s"
      ],
      [
        "b",
        "ly"
      ],
      [
        "b",
        "ox"
      ],
      [
        "d",
        "own"
      ],
      [
        "f",
        "e"
      ],
      [
        "f",
        "rom"
      ],
      [
        "g",
        "l"
      ],
      [
        "l",
        "ite"
      ],
      [
        "l",
        "ves"
      ],
      [
        "l",
        "anch"
      ],
      [
        "m",
        "p"
      ],
      [
        "m",
        "en"
      ],
      [
        "n",
        "y"
      ],
      [
        "o",
        "ly"
      ],
      [
        "o",
        "bster"
      ],
      [
        "p",
        "ig"
      ],
      [
        "r",
        "on"
      ],
      [
        "r",
        "an"
      ],
      [
        "s",
        "it"
      ],
      [
        "s",
        "ide"
      ],
      [
        "w",
        "ill"
      ],
      [
        "w",
        "een"
      ],
      [
        "w",
        "ards"
      ],
      [
        "Ġ",
        "X"
      ],
      [
        "Ġ",
        "ed"
      ],
      [
        "Ġ",
        "hat"
      ],
      [
        "Ġ",
        "You"
      ],
      [
        "Ġ",
        "No"
      ],
      [
        "Ġs",
        "ent"
      ],
      [
        "Ġs",
        "ir"
      ],
      [
        "Ġs",
        "ec"
      ],
      [
        "Ġs",
        "ever"
      ],
      [
        "Ġs",
        "igh"
      ],
      [
        "Ġs",
        "chool"
      ],
      [
        "in",
        "ea"
      ],
      [
        "ou",
        "ble"
      ],
      [
        "Ġw",
        "indow"
      ],
      [
        "it",
        "ten"
      ],
      [
        "Ġo",
        "h"
      ],
      [
        "re",
        "sent"
      ],
      [
        "Ġb",
        "l"
      ],
      [
        "Ġto",
        "ld"
      ],
      [
        "Ġc",
        "r"
      ],
      [
        "Ġc",
        "ut"
      ],
      [
        "id",
        "es"
      ],
      [
        "Ġm",
        "aking"
      ],
      [
        "Ġm",
        "ushroom"
      ],
      [
        "Ġl",
        "ate"
      ],
      [
        "Ġl",
        "oud"
      ],
      [
        "Ġd",
        "ro"
      ],
      [
        "Ġf",
        "our"
      ],
      [
        "as",
        "h"
      ],
      [
        "is",
        "on"
      ],
      [
        "or",
        "row"
      ],
      [
        "Ġin",
        "ches"
      ],
      [
        "Ġg",
        "ir"
      ],
      [
        "Ġn",
        "onsense"
      ],
      [
        "se",
        "t"
      ],
      [
        "Ġbe",
        "at"
      ],
      [
        "ĠA",
        "n"
      ],
      [
        "Ġp",
        "ardon"
      ],
      [
        "Ġha",
        "ven"
      ],
      [
        "Ġyou",
        "th"
      ],
      [
        "Ġth",
        "ough"
      ],
      [
        "ut",
        "ter"
      ],
      [
        "Ġh",
        "our"
      ],
      [
        "Ġh",
        "un"
      ],
      [
        "Ġe",
        "g"
      ],
      [
        "Ġe",
        "vidence"
      ],
      [
        "oo",
        "f"
      ],
      [
        "ur",
        "n"
      ],
      [
        "ee",
        "k"
      ],
      [
        "ri",
        "z"
      ],
      [
        "to",
        "gether"
      ],
      [
        "im",
        "al"
      ],
      [
        "ab",
        "el"
      ],
      [
        "ry",
        "ing"
      ],
      [
        "ro",
        "ss"
      ],
      [
        "Ġkn",
        "ee"
      ],
      [
        "Ġsh",
        "ow"
      ],
      [
        "Ġbut",
        "ter"
      ],
      [
        "Ġme",
        "lanch"
      ],
      [
        "Ġqu",
        "iet"
      ],
      [
        "ĠC",
        "heshire"
      ],
      [
        "Ġbeg",
        "un"
      ],
      [
        "Wh",
        "ich"
      ],
      [
        "Ġtime",
        "s"
      ],
      [
        "Ġgr",
        "ave"
      ],
      [
        "thing",
        "s"
      ],
      [
        "ig",
        "n"
      ],
      [
        "Ġch",
        "imney"
      ],
      [
        "Ġhim",
        "self"
      ],
      [
        "Ġhow",
        "ever"
      ],
      [
        "Ġother",
        "s"
      ],
      [
        "Ġpo",
        "lite"
      ],
      [
        "Ġal",
        "most"
      ],
      [
        "but",
        "ter"
      ],
      [
        "ĠF",
        "ive"
      ],
      [
        "Ġmin",
        "e"
      ],
      [
        "ag",
        "ed"
      ],
      [
        "ĠL",
        "ory"
      ],
      [
        "ĠâĢĺ",
        "_"
      ],
      [
        "end",
        "s"
      ],
      [
        "old",
        "ed"
      ],
      [
        "Ġpleas",
        "ed"
      ],
      [
        "Ġwr",
        "itten"
      ],
      [
        "Ġfl",
        "aming"
      ],
      [
        "em",
        "pt"
      ],
      [
        "Ġpe",
        "pper"
      ],
      [
        "iz",
        "ard"
      ],
      [
        "Ġhapp",
        "ened"
      ],
      [
        "Ġarm",
        "s"
      ],
      [
        "Ġfin",
        "ish"
      ],
      [
        "Ġgu",
        "ess"
      ],
      [
        "Ġgu",
        "inea"
      ],
      [
        "Ġwat",
        "ch"
      ],
      [
        "Ġlo",
        "ve"
      ],
      [
        "Ġlo",
        "bsters"
      ],
      [
        "Ġinter",
        "est"
      ],
      [
        "Ġsil",
        "ent"
      ],
      [
        "Ġcro",
        "ss"
      ],
      [
        "Ġsw",
        "im"
      ],
      [
        "Ġac",
        "c"
      ],
      [
        "Ġsc",
        "ream"
      ],
      [
        "Ġsneez",
        "ing"
      ],
      [
        "Ġsurpr",
        "ised"
      ],
      [
        "Ġexecution",
        "er"
      ],
      [
        "Ġdec",
        "ided"
      ],
      [
        "Ġrun",
        "ning"
      ],
      [
        "Ġver",
        "se"
      ],
      [
        "Ġbro",
        "ken"
      ],
      [
        "Ġfright",
        "ened"
      ],
      [
        "Ġsub",
        "ject"
      ],
      [
        "Ġhedgeho",
        "g"
      ],
      [
        "Ġmar",
        "ked"
      ],
      [
        "Ġdread",
        "fully"
      ],
      [
        "ĠHear",
        "ts"
      ],
      [
        "Ġexcl",
        "aim"
      ],
      [
        "ĠEngl",
        "ish"
      ],
      [
        "Ġmelanch",
        "oly"
      ],
      [
        "Ġpolite",
        "ly"
      ],
      [
        "Ġexclaim",
        "ed"
      ],
      [
        "!",
        "âĢĻ"
      ],
      [
        "A",
        "t"
      ],
      [
        "A",
        "re"
      ],
      [
        "A",
        "ll"
      ],
      [
        "F",
        "or"
      ],
      [
        "H",
        "E"
      ],
      [
        "O",
        "n"
      ],
      [
        "O",
        "ne"
      ],
      [
        "S",
        "t"
      ],
      [
        "V",
        "ery"
      ],
      [
        "a",
        "per"
      ],
      [
        "c",
        "o"
      ],
      [
        "d",
        "o"
      ],
      [
        "d",
        "u"
      ],
      [
        "d",
        "ign"
      ],
      [
        "e",
        "ly"
      ],
      [
        "e",
        "ad"
      ],
      [
        "e",
        "verything"
      ],
      [
        "f",
        "ish"
      ],
      [
        "f",
        "ect"
      ],
      [
        "g",
        "ar"
      ],
      [
        "g",
        "es"
      ],
      [
        "h",
        "ot"
      ],
      [
        "i",
        "bb"
      ],
      [
        "j",
        "ust"
      ],
      [
        "l",
        "ong"
      ],
      [
        "m",
        "ent"
      ],
      [
        "o",
        "ved"
      ],
      [
        "p",
        "e"
      ],
      [
        "s",
        "c"
      ],
      [
        "s",
        "u"
      ],
      [
        "s",
        "ha"
      ],
      [
        "s",
        "ing"
      ],
      [
        "s",
        "ity"
      ],
      [
        "t",
        "e"
      ],
      [
        "t",
        "ell"
      ],
      [
        "t",
        "il"
      ],
      [
        "t",
        "wo"
      ],
      [
        "v",
        "ous"
      ],
      [
        "w",
        "e"
      ],
      [
        "w",
        "ent"
      ],
      [
        "w",
        "ell"
      ],
      [
        "w",
        "onder"
      ],
      [
        "w",
        "ise"
      ],
      [
        "w",
        "here"
      ],
      [
        "w",
        "hen"
      ],
      [
        "Ġ",
        "ent"
      ],
      [
        "Ġt",
        "e"
      ],
      [
        "Ġt",
        "en"
      ],
      [
        "Ġt",
        "ree"
      ],
      [
        "Ġt",
        "aking"
      ],
      [
        "Ġt",
        "arts"
      ],
      [
        "Ġt",
        "emper"
      ],
      [
        "Ġs",
        "qu"
      ],
      [
        "Ġs",
        "han"
      ],
      [
        "Ġs",
        "ky"
      ],
      [
        "in",
        "y"
      ],
      [
        "er",
        "vous"
      ],
      [
        "ing",
        "er"
      ],
      [
        "ed",
        "s"
      ],
      [
        "Ġb",
        "ow"
      ],
      [
        "Ġb",
        "read"
      ],
      [
        "Ġb",
        "ox"
      ],
      [
        "Ġb",
        "irds"
      ],
      [
        "Ġc",
        "as"
      ],
      [
        "ll",
        "e"
      ],
      [
        "Ġm",
        "utter"
      ],
      [
        "ce",
        "ed"
      ],
      [
        "ce",
        "pt"
      ],
      [
        "Ġd",
        "are"
      ],
      [
        "Ġd",
        "rink"
      ],
      [
        "Ġd",
        "rew"
      ],
      [
        "Ġf",
        "un"
      ],
      [
        "Ġf",
        "ull"
      ],
      [
        "as",
        "ily"
      ],
      [
        "Ġhe",
        "ight"
      ],
      [
        "Ġof",
        "ten"
      ],
      [
        "ĠâĢľ",
        "_"
      ],
      [
        "ar",
        "ing"
      ],
      [
        "li",
        "ke"
      ],
      [
        "Ġin",
        "v"
      ],
      [
        "Ġin",
        "dign"
      ],
      [
        "at",
        "ch"
      ],
      [
        "Ġg",
        "re"
      ],
      [
        "Ġn",
        "ervous"
      ],
      [
        "ĠA",
        "s"
      ],
      [
        "Ġp",
        "r"
      ],
      [
        "Ġp",
        "ack"
      ],
      [
        "Ġp",
        "air"
      ],
      [
        "Ġp",
        "ict"
      ],
      [
        "Ġyou",
        "ng"
      ],
      [
        "Ġth",
        "row"
      ],
      [
        "ĠI",
        "n"
      ],
      [
        "ut",
        "iful"
      ],
      [
        "Ġh",
        "ome"
      ],
      [
        "Ġas",
        "king"
      ],
      [
        "ur",
        "or"
      ],
      [
        "Ġr",
        "at"
      ],
      [
        "Ġr",
        "abbit"
      ],
      [
        "Ġr",
        "oof"
      ],
      [
        "ad",
        "ri"
      ],
      [
        "Ġre",
        "ach"
      ],
      [
        "Ġan",
        "imal"
      ],
      [
        "Ġnot",
        "ice"
      ],
      [
        "ook",
        "ah"
      ],
      [
        "Ġk",
        "id"
      ],
      [
        "Ġfor",
        "get"
      ],
      [
        "th",
        "ought"
      ],
      [
        "ro",
        "ll"
      ],
      [
        "Ġne",
        "w"
      ],
      [
        "Ġsu",
        "l"
      ],
      [
        "Ġli",
        "ked"
      ],
      [
        "Ġsh",
        "rink"
      ],
      [
        "Ġj",
        "u"
      ],
      [
        "Ġj",
        "uror"
      ],
      [
        "Ġme",
        "ant"
      ],
      [
        "Ġhis",
        "tory"
      ],
      [
        "ĠT",
        "hat"
      ],
      [
        "Ġst",
        "ay"
      ],
      [
        "Ġst",
        "and"
      ],
      [
        "Ġst",
        "ick"
      ],
      [
        "Qu",
        "een"
      ],
      [
        "Ġv",
        "an"
      ],
      [
        "Ġv",
        "iol"
      ],
      [
        "Ġsome",
        "body"
      ],
      [
        "Ġgr",
        "un"
      ],
      [
        "il",
        "ence"
      ],
      [
        "Ġmy",
        "self"
      ],
      [
        "Ġex",
        "p"
      ],
      [
        "Ġex",
        "t"
      ],
      [
        "Ġex",
        "actly"
      ],
      [
        "Ġtw",
        "ice"
      ],
      [
        "Ġrep",
        "ly"
      ],
      [
        "ĠThe",
        "y"
      ],
      [
        "Ġal",
        "ong"
      ],
      [
        "Ġal",
        "together"
      ],
      [
        "ec",
        "ause"
      ],
      [
        "oot",
        "s"
      ],
      [
        "Ġpl",
        "an"
      ],
      [
        "ĠL",
        "et"
      ],
      [
        "ĠL",
        "obster"
      ],
      [
        "ĠL",
        "izard"
      ],
      [
        "Ġcur",
        "io"
      ],
      [
        "Ġwa",
        "ving"
      ],
      [
        "ru",
        "mb"
      ],
      [
        "Ġchan",
        "ged"
      ],
      [
        "Ġunder",
        "stand"
      ],
      [
        "Ġevery",
        "body"
      ],
      [
        "Ġmean",
        "s"
      ],
      [
        "Ġtre",
        "acle"
      ],
      [
        "Ġwonder",
        "ing"
      ],
      [
        "Ġwr",
        "ite"
      ],
      [
        "Ġwr",
        "iting"
      ],
      [
        "um",
        "ent"
      ],
      [
        "Ġremember",
        "ed"
      ],
      [
        "Ġwal",
        "k"
      ],
      [
        "Ġbec",
        "ome"
      ],
      [
        "Ġpro",
        "cess"
      ],
      [
        "Ġear",
        "s"
      ],
      [
        "air",
        "s"
      ],
      [
        "Ġwat",
        "er"
      ],
      [
        "time",
        "s"
      ],
      [
        "Ġang",
        "ry"
      ],
      [
        "bb",
        "ing"
      ],
      [
        "Ġsw",
        "am"
      ],
      [
        "Ġmor",
        "ning"
      ],
      [
        "raw",
        "ling"
      ],
      [
        "Ġhappen",
        "s"
      ],
      [
        "Ġimp",
        "atiently"
      ],
      [
        "Ġac",
        "ross"
      ],
      [
        "Ġsound",
        "ed"
      ],
      [
        "Ġshri",
        "ll"
      ],
      [
        "Ġshri",
        "ek"
      ],
      [
        "Ġdirect",
        "ion"
      ],
      [
        "fort",
        "able"
      ],
      [
        "Ġtr",
        "ouble"
      ],
      [
        "Ġsleep",
        "y"
      ],
      [
        "Ġinst",
        "antly"
      ],
      [
        "look",
        "ing"
      ],
      [
        "Ġsto",
        "p"
      ],
      [
        "Ġsig",
        "hed"
      ],
      [
        "Ġtwink",
        "le"
      ],
      [
        "Ġsimp",
        "le"
      ],
      [
        "Ġpers",
        "on"
      ],
      [
        "Ġjump",
        "ed"
      ],
      [
        "Ġtremb",
        "ling"
      ],
      [
        "Ġfanc",
        "y"
      ],
      [
        "Ġwhisper",
        "ed"
      ],
      [
        "Ġforgot",
        "ten"
      ],
      [
        "Ġarg",
        "ument"
      ],
      [
        "Ġusu",
        "al"
      ],
      [
        "ran",
        "ge"
      ],
      [
        "Ġsec",
        "ond"
      ],
      [
        "Ġeg",
        "gs"
      ],
      [
        "riz",
        "es"
      ],
      [
        "Ġquiet",
        "ly"
      ],
      [
        "Ġflaming",
        "o"
      ],
      [
        "Ġinterest",
        "ing"
      ],
      [
        "Ġcas",
        "e"
      ],
      [
        "adri",
        "lle"
      ],
      [
        "Ġcurio",
        "sity"
      ],
      [
        "!",
        "_âĢĿ"
      ],
      [
        ")",
        "."
      ],
      [
        "?",
        "âĢĶ"
      ],
      [
        "A",
        "h"
      ],
      [
        "A",
        "n"
      ],
      [
        "B",
        "e"
      ],
      [
        "B",
        "y"
      ],
      [
        "C",
        "all"
      ],
      [
        "E",
        "N"
      ],
      [
        "E",
        "x"
      ],
      [
        "F",
        "irst"
      ],
      [
        "G",
        "ryphon"
      ],
      [
        "H",
        "old"
      ],
      [
        "M",
        "y"
      ],
      [
        "P",
        "lease"
      ],
      [
        "S",
        "ure"
      ],
      [
        "_",
        "."
      ],
      [
        "a",
        "z"
      ],
      [
        "a",
        "fter"
      ],
      [
        "b",
        "y"
      ],
      [
        "b",
        "ow"
      ],
      [
        "b",
        "ook"
      ],
      [
        "b",
        "irds"
      ],
      [
        "b",
        "ecause"
      ],
      [
        "c",
        "c"
      ],
      [
        "c",
        "i"
      ],
      [
        "c",
        "ome"
      ],
      [
        "c",
        "us"
      ],
      [
        "c",
        "han"
      ],
      [
        "c",
        "op"
      ],
      [
        "d",
        "id"
      ],
      [
        "d",
        "on"
      ],
      [
        "d",
        "ict"
      ],
      [
        "d",
        "oor"
      ],
      [
        "e",
        "xt"
      ],
      [
        "g",
        "li"
      ],
      [
        "h",
        "or"
      ],
      [
        "i",
        "p"
      ],
      [
        "l",
        "as"
      ],
      [
        "l",
        "ar"
      ],
      [
        "m",
        "s"
      ],
      [
        "m",
        "y"
      ],
      [
        "m",
        "in"
      ],
      [
        "m",
        "ust"
      ],
      [
        "m",
        "oment"
      ],
      [
        "n",
        "ear"
      ],
      [
        "o",
        "h"
      ],
      [
        "o",
        "s"
      ],
      [
        "o",
        "king"
      ],
      [
        "p",
        "ed"
      ],
      [
        "p",
        "ie"
      ],
      [
        "p",
        "ocket"
      ],
      [
        "r",
        "ay"
      ],
      [
        "r",
        "un"
      ],
      [
        "t",
        "ake"
      ],
      [
        "t",
        "ree"
      ],
      [
        "u",
        "c"
      ],
      [
        "u",
        "nder"
      ],
      [
        "u",
        "de"
      ],
      [
        "u",
        "ff"
      ],
      [
        "v",
        "il"
      ],
      [
        "w",
        "r"
      ],
      [
        "w",
        "he"
      ],
      [
        "w",
        "or"
      ],
      [
        "Ġ",
        "âĢĻ"
      ],
      [
        "Ġ",
        "What"
      ],
      [
        "Ġt",
        "er"
      ],
      [
        "Ġt",
        "ast"
      ],
      [
        "Ġt",
        "ak"
      ],
      [
        "Ġt",
        "aught"
      ],
      [
        "Ġt",
        "iny"
      ],
      [
        "Ġa",
        "ge"
      ],
      [
        "Ġs",
        "in"
      ],
      [
        "Ġs",
        "oup"
      ],
      [
        "Ġs",
        "ides"
      ],
      [
        "Ġs",
        "orrow"
      ],
      [
        "in",
        "t"
      ],
      [
        "Ġw",
        "ow"
      ],
      [
        "Ġw",
        "and"
      ],
      [
        "Ġw",
        "ild"
      ],
      [
        "Ġw",
        "eek"
      ],
      [
        "it",
        "al"
      ],
      [
        "it",
        "che"
      ],
      [
        "it",
        "ude"
      ],
      [
        "Ġo",
        "b"
      ],
      [
        "re",
        "m"
      ],
      [
        "Ġb",
        "ar"
      ],
      [
        "Ġb",
        "an"
      ],
      [
        "Ġto",
        "ss"
      ],
      [
        "Ġto",
        "ng"
      ],
      [
        "Ġc",
        "or"
      ],
      [
        "Ġc",
        "ap"
      ],
      [
        "id",
        "er"
      ],
      [
        "Ġm",
        "ice"
      ],
      [
        "Ġm",
        "us"
      ],
      [
        "Ġl",
        "ad"
      ],
      [
        "Ġl",
        "ay"
      ],
      [
        "Ġl",
        "ock"
      ],
      [
        "Ġd",
        "es"
      ],
      [
        "Ġd",
        "ish"
      ],
      [
        "Ġd",
        "ark"
      ],
      [
        "on",
        "our"
      ],
      [
        "Ġf",
        "ly"
      ],
      [
        "Ġf",
        "ri"
      ],
      [
        "Ġf",
        "ear"
      ],
      [
        "Ġf",
        "ast"
      ],
      [
        "Ġf",
        "ig"
      ],
      [
        "Ġf",
        "ire"
      ],
      [
        "Ġf",
        "rown"
      ],
      [
        "Ġf",
        "etch"
      ],
      [
        "Ġf",
        "inger"
      ],
      [
        "Ġsa",
        "dly"
      ],
      [
        "ar",
        "re"
      ],
      [
        "ar",
        "se"
      ],
      [
        "le",
        "ad"
      ],
      [
        "or",
        "po"
      ],
      [
        "at",
        "ur"
      ],
      [
        "Ġn",
        "ur"
      ],
      [
        "Ġn",
        "ight"
      ],
      [
        "Ġn",
        "one"
      ],
      [
        "Ġn",
        "ine"
      ],
      [
        "Ġn",
        "ibb"
      ],
      [
        "se",
        "a"
      ],
      [
        "se",
        "lves"
      ],
      [
        "an",
        "c"
      ],
      [
        "an",
        "g"
      ],
      [
        "an",
        "sw"
      ],
      [
        "an",
        "xiously"
      ],
      [
        "ĠA",
        "t"
      ],
      [
        "Ġp",
        "atter"
      ],
      [
        "Ġp",
        "eep"
      ],
      [
        "Ġp",
        "ret"
      ],
      [
        "Ġp",
        "ale"
      ],
      [
        "Ġp",
        "resent"
      ],
      [
        "Ġp",
        "orpo"
      ],
      [
        "ot",
        "e"
      ],
      [
        "Ġh",
        "o"
      ],
      [
        "Ġh",
        "ookah"
      ],
      [
        "Ġh",
        "onour"
      ],
      [
        "Ġher",
        "s"
      ],
      [
        "ur",
        "d"
      ],
      [
        "Ġso",
        "bs"
      ],
      [
        "ent",
        "h"
      ],
      [
        "ent",
        "y"
      ],
      [
        "the",
        "re"
      ],
      [
        "ĠM",
        "abel"
      ],
      [
        "Ġk",
        "itche"
      ],
      [
        "ain",
        "t"
      ],
      [
        "ain",
        "ed"
      ],
      [
        "to",
        "m"
      ],
      [
        "th",
        "ough"
      ],
      [
        "th",
        "rough"
      ],
      [
        "im",
        "ble"
      ],
      [
        "qu",
        "estion"
      ],
      [
        "Ġdo",
        "ing"
      ],
      [
        "ĠD",
        "o"
      ],
      [
        "ro",
        "quet"
      ],
      [
        "Ġkn",
        "ock"
      ],
      [
        "pp",
        "ing"
      ],
      [
        "all",
        "ow"
      ],
      [
        "Ġqu",
        "ick"
      ],
      [
        "ĠT",
        "his"
      ],
      [
        "ĠT",
        "wo"
      ],
      [
        "ĠC",
        "ome"
      ],
      [
        "ĠC",
        "au"
      ],
      [
        "Ġst",
        "ra"
      ],
      [
        "Ġst",
        "upid"
      ],
      [
        "Ġst",
        "range"
      ],
      [
        "Ġno",
        "body"
      ],
      [
        "ĠQu",
        "adrille"
      ],
      [
        "Ġthought",
        "fully"
      ],
      [
        "ĠS",
        "oo"
      ],
      [
        "Ġoff",
        "ic"
      ],
      [
        "Ġsome",
        "times"
      ],
      [
        "us",
        "ed"
      ],
      [
        "ast",
        "s"
      ],
      [
        "ne",
        "ver"
      ],
      [
        "Ġsay",
        "s"
      ],
      [
        "Ġgr",
        "ass"
      ],
      [
        "Ġwor",
        "th"
      ],
      [
        "Ġsp",
        "read"
      ],
      [
        "Ġsp",
        "eaking"
      ],
      [
        "Ġtw",
        "el"
      ],
      [
        "ig",
        "ging"
      ],
      [
        "ĠThe",
        "n"
      ],
      [
        "Ġ(",
        "âĢľ"
      ],
      [
        "Ġcon",
        "cl"
      ],
      [
        "Ġpo",
        "in"
      ],
      [
        "Ġal",
        "oud"
      ],
      [
        "ĠF",
        "ather"
      ],
      [
        "ic",
        "ular"
      ],
      [
        "Ġseem",
        "s"
      ],
      [
        "oot",
        "iful"
      ],
      [
        "ĠWh",
        "o"
      ],
      [
        "Ġshould",
        "n"
      ],
      [
        "Ġshould",
        "er"
      ],
      [
        "Ġar",
        "ches"
      ],
      [
        "Ġy",
        "er"
      ],
      [
        "ĠL",
        "ong"
      ],
      [
        "Ġman",
        "aged"
      ],
      [
        "Ġbot",
        "tom"
      ],
      [
        "Ġchan",
        "ce"
      ],
      [
        "Ġun",
        "com"
      ],
      [
        "Ġun",
        "til"
      ],
      [
        "Ġnear",
        "er"
      ],
      [
        "Ġen",
        "cour"
      ],
      [
        "les",
        "cop"
      ],
      [
        "Ġjury",
        "men"
      ],
      [
        "not",
        "hing"
      ],
      [
        "Ġtea",
        "cup"
      ],
      [
        "Ġsm",
        "il"
      ],
      [
        "Ġwr",
        "ong"
      ],
      [
        "Ġhear",
        "ing"
      ],
      [
        "ho",
        "le"
      ],
      [
        "sh",
        "ould"
      ],
      [
        "Ġset",
        "t"
      ],
      [
        "Ġbr",
        "ing"
      ],
      [
        "Ġface",
        "s"
      ],
      [
        "Ġbet",
        "ween"
      ],
      [
        "Ġpart",
        "icular"
      ],
      [
        "Ġquestion",
        "s"
      ],
      [
        "Ġsupp",
        "ressed"
      ],
      [
        "ap",
        "e"
      ],
      [
        "Ġexecut",
        "ed"
      ],
      [
        "beg",
        "in"
      ],
      [
        "Ġplay",
        "ers"
      ],
      [
        "with",
        "out"
      ],
      [
        "ren",
        "ch"
      ],
      [
        "ret",
        "ched"
      ],
      [
        "Not",
        "hing"
      ],
      [
        "Ġbus",
        "ily"
      ],
      [
        "Ġmouth",
        "s"
      ],
      [
        "Ġlea",
        "ves"
      ],
      [
        "Ġru",
        "le"
      ],
      [
        "wh",
        "y"
      ],
      [
        "wh",
        "ile"
      ],
      [
        "wh",
        "ich"
      ],
      [
        "Ġadv",
        "entures"
      ],
      [
        "Ġcreat",
        "ure"
      ],
      [
        "Ġpass",
        "ed"
      ],
      [
        "Ġde",
        "ad"
      ],
      [
        "Ġdeep",
        "ly"
      ],
      [
        "Ġfall",
        "en"
      ],
      [
        "ex",
        "ecut"
      ],
      [
        "Ġsurpr",
        "ise"
      ],
      [
        "Ġfell",
        "ow"
      ],
      [
        "Ġtwink",
        "ling"
      ],
      [
        "con",
        "fus"
      ],
      [
        "ĠV",
        "II"
      ],
      [
        "Ġsharp",
        "ly"
      ],
      [
        "med",
        "i"
      ],
      [
        "Ġim",
        "medi"
      ],
      [
        "Ġbat",
        "s"
      ],
      [
        "Ġcar",
        "ried"
      ],
      [
        "Ġcrowd",
        "ed"
      ],
      [
        "any",
        "thing"
      ],
      [
        "Ġhop",
        "e"
      ],
      [
        "Ġord",
        "ered"
      ],
      [
        "gr",
        "ound"
      ],
      [
        "say",
        "ing"
      ],
      [
        "tur",
        "ned"
      ],
      [
        "Ġtru",
        "e"
      ],
      [
        "Ġbreat",
        "h"
      ],
      [
        "Ġcle",
        "ar"
      ],
      [
        "Ġsolem",
        "nly"
      ],
      [
        "ssi",
        "ble"
      ],
      [
        "Ġventure",
        "d"
      ],
      [
        "ĠBea",
        "u"
      ],
      [
        "Ġdifficult",
        "y"
      ],
      [
        "pig",
        "s"
      ],
      [
        "Ġsever",
        "ely"
      ],
      [
        "Ġdro",
        "pped"
      ],
      [
        "Ġgir",
        "l"
      ],
      [
        "ĠAn",
        "n"
      ],
      [
        "Ġhour",
        "s"
      ],
      [
        "Ġscream",
        "ed"
      ],
      [
        "Ġdecided",
        "ly"
      ],
      [
        "fect",
        "ly"
      ],
      [
        "Ġbow",
        "ed"
      ],
      [
        "Ġindign",
        "antly"
      ],
      [
        "Ġgre",
        "en"
      ],
      [
        "Ġshrink",
        "ing"
      ],
      [
        "Ġju",
        "dge"
      ],
      [
        "Ġjuror",
        "s"
      ],
      [
        "Ġvan",
        "ished"
      ],
      [
        "Ġgrun",
        "ted"
      ],
      [
        "Ġexp",
        "ect"
      ],
      [
        "rumb",
        "s"
      ],
      [
        "Ġprocess",
        "ion"
      ],
      [
        "gli",
        "f"
      ],
      [
        "lar",
        "ge"
      ],
      [
        "min",
        "ute"
      ],
      [
        "Ġtak",
        "en"
      ],
      [
        "Ġsin",
        "ce"
      ],
      [
        "Ġtong",
        "ue"
      ],
      [
        "Ġcor",
        "ner"
      ],
      [
        "Ġcap",
        "ital"
      ],
      [
        "Ġfrown",
        "ing"
      ],
      [
        "atur",
        "al"
      ],
      [
        "Ġporpo",
        "ise"
      ],
      [
        "Ġkitche",
        "n"
      ],
      [
        "ĠCau",
        "cus"
      ],
      [
        "Ġstra",
        "ight"
      ],
      [
        "Ġtwel",
        "ve"
      ],
      [
        "!",
        "âĢĶ"
      ],
      [
        "!",
        "âĢĻâĢĿ"
      ],
      [
        ".",
        "âĢĻ"
      ],
      [
        ";",
        "âĢĿ"
      ],
      [
        "A",
        "R"
      ],
      [
        "A",
        "fter"
      ],
      [
        "B",
        "ill"
      ],
      [
        "C",
        "ons"
      ],
      [
        "D",
        "id"
      ],
      [
        "D",
        "own"
      ],
      [
        "D",
        "uchess"
      ],
      [
        "D",
        "inah"
      ],
      [
        "E",
        "very"
      ],
      [
        "F",
        "ootman"
      ],
      [
        "G",
        "ive"
      ],
      [
        "H",
        "ave"
      ],
      [
        "I",
        "N"
      ],
      [
        "I",
        "s"
      ],
      [
        "M",
        "ouse"
      ],
      [
        "N",
        "D"
      ],
      [
        "N",
        "ever"
      ],
      [
        "O",
        "R"
      ],
      [
        "P",
        "erhaps"
      ],
      [
        "R",
        "abbit"
      ],
      [
        "S",
        "u"
      ],
      [
        "S",
        "oo"
      ],
      [
        "T",
        "is"
      ],
      [
        "T",
        "han"
      ],
      [
        "T",
        "ake"
      ],
      [
        "T",
        "urn"
      ],
      [
        "Y",
        "et"
      ],
      [
        "a",
        "used"
      ],
      [
        "b",
        "o"
      ],
      [
        "b",
        "est"
      ],
      [
        "c",
        "at"
      ],
      [
        "c",
        "all"
      ],
      [
        "c",
        "ame"
      ],
      [
        "c",
        "il"
      ],
      [
        "c",
        "ceed"
      ],
      [
        "d",
        "i"
      ],
      [
        "d",
        "is"
      ],
      [
        "d",
        "ear"
      ],
      [
        "d",
        "oes"
      ],
      [
        "e",
        "y"
      ],
      [
        "e",
        "ed"
      ],
      [
        "e",
        "pper"
      ],
      [
        "f",
        "l"
      ],
      [
        "f",
        "ee"
      ],
      [
        "f",
        "our"
      ],
      [
        "g",
        "g"
      ],
      [
        "g",
        "ry"
      ],
      [
        "g",
        "reat"
      ],
      [
        "g",
        "ra"
      ],
      [
        "g",
        "ood"
      ],
      [
        "g",
        "ged"
      ],
      [
        "i",
        "les"
      ],
      [
        "i",
        "vil"
      ],
      [
        "k",
        "s"
      ],
      [
        "k",
        "ers"
      ],
      [
        "l",
        "and"
      ],
      [
        "l",
        "are"
      ],
      [
        "m",
        "er"
      ],
      [
        "m",
        "ing"
      ],
      [
        "m",
        "on"
      ],
      [
        "m",
        "uch"
      ],
      [
        "m",
        "ine"
      ],
      [
        "n",
        "ers"
      ],
      [
        "o",
        "on"
      ],
      [
        "o",
        "ve"
      ],
      [
        "o",
        "ked"
      ],
      [
        "o",
        "ssible"
      ],
      [
        "p",
        "u"
      ],
      [
        "p",
        "an"
      ],
      [
        "p",
        "ro"
      ],
      [
        "p",
        "leas"
      ],
      [
        "p",
        "ass"
      ],
      [
        "r",
        "ather"
      ],
      [
        "t",
        "is"
      ],
      [
        "t",
        "ea"
      ],
      [
        "t",
        "alking"
      ],
      [
        "u",
        "ous"
      ],
      [
        "v",
        "age"
      ],
      [
        "w",
        "l"
      ],
      [
        "w",
        "ink"
      ],
      [
        "w",
        "ho"
      ],
      [
        "w",
        "alking"
      ],
      [
        "x",
        "ious"
      ],
      [
        "y",
        "et"
      ],
      [
        "Ġ",
        "Off"
      ],
      [
        "Ġt",
        "uck"
      ],
      [
        "Ġt",
        "umb"
      ],
      [
        "he",
        "s"
      ],
      [
        "he",
        "lp"
      ],
      [
        "Ġa",
        "g"
      ],
      [
        "Ġa",
        "li"
      ],
      [
        "Ġs",
        "li"
      ],
      [
        "Ġs",
        "ense"
      ],
      [
        "Ġs",
        "ix"
      ],
      [
        "in",
        "ter"
      ],
      [
        "ou",
        "dly"
      ],
      [
        "it",
        "ted"
      ],
      [
        "er",
        "day"
      ],
      [
        "ing",
        "s"
      ],
      [
        "re",
        "p"
      ],
      [
        "ed",
        "n"
      ],
      [
        "Ġb",
        "low"
      ],
      [
        "Ġb",
        "oy"
      ],
      [
        "Ġb",
        "urn"
      ],
      [
        "Ġb",
        "oots"
      ],
      [
        "Ġto",
        "es"
      ],
      [
        "âĢĻ",
        "!âĢĿ"
      ],
      [
        "Ġc",
        "o"
      ],
      [
        "Ġc",
        "ha"
      ],
      [
        "Ġc",
        "and"
      ],
      [
        "Ġc",
        "ry"
      ],
      [
        "Ġc",
        "ust"
      ],
      [
        "Ġc",
        "ake"
      ],
      [
        "Ġc",
        "ause"
      ],
      [
        "Ġc",
        "akes"
      ],
      [
        "Ġc",
        "ards"
      ],
      [
        "Ġc",
        "rown"
      ],
      [
        "Ġc",
        "aught"
      ],
      [
        "Ġc",
        "rumbs"
      ],
      [
        "Ġc",
        "ivil"
      ],
      [
        "id",
        "ent"
      ],
      [
        "en",
        "cil"
      ],
      [
        "Ġm",
        "is"
      ],
      [
        "Ġm",
        "ent"
      ],
      [
        "Ġm",
        "et"
      ],
      [
        "Ġm",
        "ark"
      ],
      [
        "Ġm",
        "iss"
      ],
      [
        "Ġm",
        "aster"
      ],
      [
        "Ġm",
        "iles"
      ],
      [
        "Ġl",
        "ed"
      ],
      [
        "Ġl",
        "au"
      ],
      [
        "Ġl",
        "ost"
      ],
      [
        "Ġl",
        "oudly"
      ],
      [
        "Ġd",
        "in"
      ],
      [
        "Ġd",
        "ot"
      ],
      [
        "Ġd",
        "ri"
      ],
      [
        "Ġd",
        "ull"
      ],
      [
        "Ġf",
        "ight"
      ],
      [
        "Ġf",
        "ish"
      ],
      [
        "Ġf",
        "ree"
      ],
      [
        "Ġf",
        "air"
      ],
      [
        "Ġf",
        "ond"
      ],
      [
        "Ġf",
        "aster"
      ],
      [
        "Ġf",
        "ron"
      ],
      [
        "Ġf",
        "olded"
      ],
      [
        "Ġsa",
        "d"
      ],
      [
        "Ġsa",
        "vage"
      ],
      [
        "as",
        "y"
      ],
      [
        "is",
        "ing"
      ],
      [
        "Ġhe",
        "ld"
      ],
      [
        "ĠâĢľ",
        "âĢĺ"
      ],
      [
        "ar",
        "m"
      ],
      [
        "le",
        "w"
      ],
      [
        "or",
        "d"
      ],
      [
        "or",
        "to"
      ],
      [
        "or",
        "us"
      ],
      [
        "li",
        "ged"
      ],
      [
        "at",
        "h"
      ],
      [
        "at",
        "er"
      ],
      [
        "at",
        "ed"
      ],
      [
        "Ġg",
        "ently"
      ],
      [
        "Ġn",
        "umber"
      ],
      [
        "Ġn",
        "atural"
      ],
      [
        "se",
        "ver"
      ],
      [
        "se",
        "em"
      ],
      [
        "Ġbe",
        "head"
      ],
      [
        "Ġbe",
        "low"
      ],
      [
        "Ġbe",
        "long"
      ],
      [
        "an",
        "ther"
      ],
      [
        "an",
        "ation"
      ],
      [
        "ĠA",
        "dv"
      ],
      [
        "ĠA",
        "fter"
      ],
      [
        "Ġp",
        "in"
      ],
      [
        "Ġp",
        "er"
      ],
      [
        "Ġp",
        "un"
      ],
      [
        "Ġp",
        "rom"
      ],
      [
        "Ġp",
        "aw"
      ],
      [
        "Ġp",
        "ity"
      ],
      [
        "Ġp",
        "ick"
      ],
      [
        "Ġp",
        "ressed"
      ],
      [
        "Ġp",
        "aws"
      ],
      [
        "Ġp",
        "ocket"
      ],
      [
        "Ġp",
        "aper"
      ],
      [
        "Ġp",
        "rizes"
      ],
      [
        "Ġp",
        "lead"
      ],
      [
        "Ġha",
        "ng"
      ],
      [
        "Ġth",
        "imble"
      ],
      [
        "Ġwas",
        "hing"
      ],
      [
        "Ġh",
        "umb"
      ],
      [
        "Ġe",
        "ff"
      ],
      [
        "Ġe",
        "sc"
      ],
      [
        "Ġe",
        "asily"
      ],
      [
        "oo",
        "se"
      ],
      [
        "âĢĶ",
        "âĢĻâĢĿ"
      ],
      [
        "ch",
        "ild"
      ],
      [
        "ur",
        "ried"
      ],
      [
        "ent",
        "ed"
      ],
      [
        "Ġu",
        "ne"
      ],
      [
        "Ġr",
        "ing"
      ],
      [
        "Ġr",
        "id"
      ],
      [
        "Ġr",
        "ace"
      ],
      [
        "ad",
        "d"
      ],
      [
        "ad",
        "ing"
      ],
      [
        "ke",
        "y"
      ],
      [
        "Ġre",
        "al"
      ],
      [
        "Ġre",
        "lie"
      ],
      [
        "Ġre",
        "sp"
      ],
      [
        "Ġre",
        "co"
      ],
      [
        "ck",
        "ed"
      ],
      [
        "ee",
        "ch"
      ],
      [
        "Ġnot",
        "ion"
      ],
      [
        "ĠM",
        "E"
      ],
      [
        "ĠM",
        "ary"
      ],
      [
        "ri",
        "ms"
      ],
      [
        "Ġk",
        "ill"
      ],
      [
        "Ġk",
        "ick"
      ],
      [
        "ain",
        "ting"
      ],
      [
        "ill",
        "ed"
      ],
      [
        "th",
        "ree"
      ],
      [
        "qu",
        "ite"
      ],
      [
        "ĠH",
        "er"
      ],
      [
        "Ġdo",
        "g"
      ],
      [
        "Ġdo",
        "gs"
      ],
      [
        "al",
        "ways"
      ],
      [
        "ĠD",
        "on"
      ],
      [
        "ĠD",
        "rawling"
      ],
      [
        "ro",
        "g"
      ],
      [
        "ro",
        "du"
      ],
      [
        "Ġne",
        "at"
      ],
      [
        "Ġne",
        "edn"
      ],
      [
        "Ġout",
        "side"
      ],
      [
        "pp",
        "ose"
      ],
      [
        "Ġsu",
        "it"
      ],
      [
        "Ġsu",
        "cceed"
      ],
      [
        "ion",
        "ed"
      ],
      [
        "Ġli",
        "very"
      ],
      [
        "Ġli",
        "ved"
      ],
      [
        "Ġsh",
        "ore"
      ],
      [
        "Ġsh",
        "ort"
      ],
      [
        "Ġme",
        "et"
      ],
      [
        "our",
        "n"
      ],
      [
        "Ġqu",
        "arre"
      ],
      [
        "ĠT",
        "ell"
      ],
      [
        "ĠT",
        "ime"
      ],
      [
        "ĠT",
        "HE"
      ],
      [
        "ĠT",
        "orto"
      ],
      [
        "Ġab",
        "s"
      ],
      [
        "Ġab",
        "ove"
      ],
      [
        "Ġst",
        "art"
      ],
      [
        "Ġst",
        "aring"
      ],
      [
        "Ġst",
        "airs"
      ],
      [
        "Ġst",
        "uff"
      ],
      [
        "Ġlike",
        "ly"
      ],
      [
        "Wh",
        "ile"
      ],
      [
        "ĊĊ",
        "ĠĠĠ"
      ],
      [
        "ĠS",
        "ha"
      ],
      [
        "ĠS",
        "to"
      ],
      [
        "ĠS",
        "aid"
      ],
      [
        "ĠS",
        "even"
      ],
      [
        "un",
        "ate"
      ],
      [
        "un",
        "com"
      ],
      [
        "un",
        "important"
      ],
      [
        "Ġgr",
        "ound"
      ],
      [
        "ant",
        "age"
      ],
      [
        "est",
        "s"
      ],
      [
        "est",
        "erday"
      ],
      [
        "Ġex",
        "cept"
      ],
      [
        "am",
        "p"
      ],
      [
        "Ġsp",
        "ect"
      ],
      [
        "Ġsp",
        "las"
      ],
      [
        "Ġmuch",
        "ness"
      ],
      [
        "Ġvoice",
        "s"
      ],
      [
        "Ġch",
        "oked"
      ],
      [
        "Ġch",
        "orus"
      ],
      [
        "ough",
        "ly"
      ],
      [
        "Ġhow",
        "ling"
      ],
      [
        "led",
        "ge"
      ],
      [
        "Ġpo",
        "sit"
      ],
      [
        "Ġal",
        "as"
      ],
      [
        "Ġal",
        "one"
      ],
      [
        "Ġmust",
        "ard"
      ],
      [
        "ist",
        "ake"
      ],
      [
        "Ġsha",
        "king"
      ],
      [
        "Ġcour",
        "age"
      ],
      [
        "ĠF",
        "irst"
      ],
      [
        "ĠF",
        "rench"
      ],
      [
        "art",
        "y"
      ],
      [
        "Ġshould",
        "ers"
      ],
      [
        "Ġlong",
        "er"
      ],
      [
        "ag",
        "ing"
      ],
      [
        "ag",
        "let"
      ],
      [
        "Ġy",
        "aw"
      ],
      [
        "ĠL",
        "at"
      ],
      [
        "onder",
        "land"
      ],
      [
        "ĠP",
        "anther"
      ],
      [
        "Ġhand",
        "ed"
      ],
      [
        "other",
        "wise"
      ],
      [
        "Ġle",
        "gs"
      ],
      [
        "Ġcat",
        "ch"
      ],
      [
        "Ġdear",
        "s"
      ],
      [
        "Ġwa",
        "ist"
      ],
      [
        "Ġhur",
        "t"
      ],
      [
        "Ġun",
        "fort"
      ],
      [
        "Ġbegin",
        "s"
      ],
      [
        "Ġfind",
        "ing"
      ],
      [
        "Ġremar",
        "king"
      ],
      [
        "Ġcl",
        "os"
      ],
      [
        "ĠE",
        "aglet"
      ],
      [
        "pl",
        "anation"
      ],
      [
        "Ġfl",
        "oor"
      ],
      [
        "Ġread",
        "ing"
      ],
      [
        "Ġsort",
        "s"
      ],
      [
        "Ġsl",
        "ate"
      ],
      [
        "ĠW",
        "here"
      ],
      [
        "el",
        "s"
      ],
      [
        "Ġbr",
        "ought"
      ],
      [
        "Ġpro",
        "per"
      ],
      [
        "Ġrepeat",
        "ing"
      ],
      [
        "Ġsn",
        "ail"
      ],
      [
        "Ġgu",
        "ests"
      ],
      [
        "Ġear",
        "th"
      ],
      [
        "aut",
        "iously"
      ],
      [
        "cl",
        "ock"
      ],
      [
        "so",
        "on"
      ],
      [
        "ac",
        "les"
      ],
      [
        "ress",
        "ing"
      ],
      [
        "Ġless",
        "on"
      ],
      [
        "Ġfoot",
        "man"
      ],
      [
        "Ġel",
        "bow"
      ],
      [
        "Ġsw",
        "allow"
      ],
      [
        "Ġsmall",
        "er"
      ],
      [
        "app",
        "ear"
      ],
      [
        "app",
        "eared"
      ],
      [
        "Ġwant",
        "ed"
      ],
      [
        "Ġfollow",
        "s"
      ],
      [
        "Ġru",
        "les"
      ],
      [
        "Ġremark",
        "s"
      ],
      [
        "ĠO",
        "F"
      ],
      [
        "ĠO",
        "wl"
      ],
      [
        "Ġimp",
        "ortant"
      ],
      [
        "Ġimp",
        "ossible"
      ],
      [
        "Ġsound",
        "s"
      ],
      [
        "Ġbeaut",
        "if"
      ],
      [
        "Ġpass",
        "ion"
      ],
      [
        "Ġpass",
        "age"
      ],
      [
        "Ġjoin",
        "ed"
      ],
      [
        "Ġdirect",
        "ions"
      ],
      [
        "_,",
        "âĢĻâĢĿ"
      ],
      [
        "Ġtim",
        "id"
      ],
      [
        "Ġinst",
        "ance"
      ],
      [
        "Ġinst",
        "ead"
      ],
      [
        "Ġturn",
        "s"
      ],
      [
        "Ġlisten",
        "ing"
      ],
      [
        "even",
        "ing"
      ],
      [
        "look",
        "ed"
      ],
      [
        "Ġtail",
        "s"
      ],
      [
        "Ġsig",
        "n"
      ],
      [
        "Ġmo",
        "ve"
      ],
      [
        "Ġmo",
        "ving"
      ],
      [
        "Ġmo",
        "ved"
      ],
      [
        "Ġgener",
        "al"
      ],
      [
        "them",
        "selves"
      ],
      [
        "Ġansw",
        "ered"
      ],
      [
        "Ġgrin",
        "ned"
      ],
      [
        "con",
        "versation"
      ],
      [
        "po",
        "ison"
      ],
      [
        "Ġdec",
        "lare"
      ],
      [
        "Ġhold",
        "ing"
      ],
      [
        "go",
        "ing"
      ],
      [
        "Ġche",
        "cked"
      ],
      [
        "Ġhop",
        "ing"
      ],
      [
        "Ġrose",
        "s"
      ],
      [
        "Ġatt",
        "ending"
      ],
      [
        "Ġjump",
        "ing"
      ],
      [
        "Ġord",
        "er"
      ],
      [
        "Ġconfus",
        "ed"
      ],
      [
        "Ġconfus",
        "ion"
      ],
      [
        "av",
        "y"
      ],
      [
        "grow",
        "ing"
      ],
      [
        "ix",
        "ed"
      ],
      [
        "tur",
        "ning"
      ],
      [
        "Ġtru",
        "mp"
      ],
      [
        "Ġbreat",
        "he"
      ],
      [
        "Ġsolem",
        "n"
      ],
      [
        "ssi",
        "bly"
      ],
      [
        "Ġconsid",
        "ered"
      ],
      [
        "Ġconsid",
        "ering"
      ],
      [
        "ĠBea",
        "utiful"
      ],
      [
        "_âĢĶ",
        "âĢĻ"
      ],
      [
        "fe",
        "lt"
      ],
      [
        "gl",
        "ass"
      ],
      [
        "Ġed",
        "ge"
      ],
      [
        "Ġsent",
        "ence"
      ],
      [
        "Ġcr",
        "ash"
      ],
      [
        "Ġhun",
        "ting"
      ],
      [
        "Ġhun",
        "gry"
      ],
      [
        "Ġgrave",
        "ly"
      ],
      [
        "empt",
        "uous"
      ],
      [
        "Ġguess",
        "ed"
      ],
      [
        "Ġacc",
        "oun"
      ],
      [
        "Ġverse",
        "s"
      ],
      [
        "On",
        "ce"
      ],
      [
        "Ġte",
        "lescop"
      ],
      [
        "Ġmutter",
        "ing"
      ],
      [
        "Ġpr",
        "ison"
      ],
      [
        "Ġpict",
        "ures"
      ],
      [
        "Ġanimal",
        "s"
      ],
      [
        "Ġforget",
        "ting"
      ],
      [
        "Ġsul",
        "ky"
      ],
      [
        "Ġviol",
        "ently"
      ],
      [
        "chan",
        "ged"
      ],
      [
        "pie",
        "ce"
      ],
      [
        "Ġob",
        "liged"
      ],
      [
        "Ġtoss",
        "ing"
      ],
      [
        "Ġmus",
        "ic"
      ],
      [
        "Ġlad",
        "y"
      ],
      [
        "Ġfig",
        "ure"
      ],
      [
        "Ġnur",
        "sing"
      ],
      [
        "Ġnibb",
        "ling"
      ],
      [
        "Ġpatter",
        "ing"
      ],
      [
        "Ġpeep",
        "ed"
      ],
      [
        "Ġho",
        "arse"
      ],
      [
        "Ġoffic",
        "ers"
      ],
      [
        "Ġpoin",
        "ting"
      ],
      [
        "Ġuncom",
        "fortable"
      ],
      [
        "Ġsett",
        "led"
      ],
      [
        "Ġimmedi",
        "ately"
      ],
      [
        "Ġexpect",
        "ing"
      ],
      [
        "Cons",
        "ider"
      ],
      [
        "Every",
        "body"
      ],
      [
        "Than",
        "k"
      ],
      [
        "call",
        "ed"
      ],
      [
        "pu",
        "zz"
      ],
      [
        "wink",
        "le"
      ],
      [
        "Ġtuck",
        "ed"
      ],
      [
        "Ġali",
        "ve"
      ],
      [
        "Ġcand",
        "le"
      ],
      [
        "Ġment",
        "ioned"
      ],
      [
        "Ġdot",
        "h"
      ],
      [
        "Ġplead",
        "ed"
      ],
      [
        "Ġhang",
        "ing"
      ],
      [
        "Ġeff",
        "ect"
      ],
      [
        "Ġesc",
        "ape"
      ],
      [
        "Ġresp",
        "ect"
      ],
      [
        "Ġsucceed",
        "ed"
      ],
      [
        "ĠTorto",
        "ise"
      ],
      [
        "Ġspect",
        "acles"
      ],
      [
        "Ġunfort",
        "unate"
      ],
      [
        "Ġtrump",
        "et"
      ],
      [
        ")",
        ":"
      ],
      [
        ")",
        ";"
      ],
      [
        ")",
        "âĢĶâĢľ"
      ],
      [
        ",",
        "âĢĻ"
      ],
      [
        ".",
        "âĢĶ"
      ],
      [
        "1",
        "1"
      ],
      [
        "?",
        "âĢĻâĢĿ"
      ],
      [
        "A",
        "dv"
      ],
      [
        "B",
        "O"
      ],
      [
        "B",
        "ea"
      ],
      [
        "B",
        "ER"
      ],
      [
        "C",
        "H"
      ],
      [
        "C",
        "T"
      ],
      [
        "C",
        "an"
      ],
      [
        "D",
        "R"
      ],
      [
        "D",
        "oes"
      ],
      [
        "E",
        "verything"
      ],
      [
        "E",
        "CT"
      ],
      [
        "F",
        "ound"
      ],
      [
        "G",
        "o"
      ],
      [
        "G",
        "r"
      ],
      [
        "G",
        "et"
      ],
      [
        "H",
        "o"
      ],
      [
        "I",
        "T"
      ],
      [
        "J",
        "ECT"
      ],
      [
        "K",
        "ing"
      ],
      [
        "K",
        "eep"
      ],
      [
        "L",
        "ast"
      ],
      [
        "M",
        "ay"
      ],
      [
        "M",
        "arch"
      ],
      [
        "O",
        "K"
      ],
      [
        "O",
        "nly"
      ],
      [
        "O",
        "JECT"
      ],
      [
        "P",
        "re"
      ],
      [
        "P",
        "oor"
      ],
      [
        "P",
        "arty"
      ],
      [
        "R",
        "ea"
      ],
      [
        "R",
        "ace"
      ],
      [
        "R",
        "OJECT"
      ],
      [
        "S",
        "h"
      ],
      [
        "S",
        "p"
      ],
      [
        "S",
        "ome"
      ],
      [
        "S",
        "oup"
      ],
      [
        "S",
        "erpent"
      ],
      [
        "S",
        "even"
      ],
      [
        "S",
        "ilence"
      ],
      [
        "T",
        "re"
      ],
      [
        "T",
        "ell"
      ],
      [
        "T",
        "wo"
      ],
      [
        "T",
        "HE"
      ],
      [
        "T",
        "EN"
      ],
      [
        "T",
        "winkle"
      ],
      [
        "U",
        "L"
      ],
      [
        "U",
        "M"
      ],
      [
        "U",
        "S"
      ],
      [
        "U",
        "n"
      ],
      [
        "U",
        "p"
      ],
      [
        "U",
        "gh"
      ],
      [
        "U",
        "glif"
      ],
      [
        "U",
        "TEN"
      ],
      [
        "W",
        "ow"
      ],
      [
        "W",
        "ith"
      ],
      [
        "W",
        "ake"
      ],
      [
        "W",
        "here"
      ],
      [
        "Y",
        "our"
      ],
      [
        "_",
        ":"
      ],
      [
        "_",
        "âĢĶâĢĿ"
      ],
      [
        "a",
        "x"
      ],
      [
        "a",
        "is"
      ],
      [
        "a",
        "ves"
      ],
      [
        "a",
        "ult"
      ],
      [
        "b",
        "ur"
      ],
      [
        "b",
        "our"
      ],
      [
        "b",
        "ish"
      ],
      [
        "b",
        "ack"
      ],
      [
        "b",
        "read"
      ],
      [
        "b",
        "aby"
      ],
      [
        "c",
        "er"
      ],
      [
        "c",
        "ha"
      ],
      [
        "c",
        "ar"
      ],
      [
        "c",
        "le"
      ],
      [
        "c",
        "or"
      ],
      [
        "c",
        "ur"
      ],
      [
        "c",
        "reat"
      ],
      [
        "c",
        "roquet"
      ],
      [
        "d",
        "w"
      ],
      [
        "d",
        "ed"
      ],
      [
        "d",
        "es"
      ],
      [
        "d",
        "ream"
      ],
      [
        "d",
        "run"
      ],
      [
        "e",
        "ither"
      ],
      [
        "f",
        "r"
      ],
      [
        "f",
        "all"
      ],
      [
        "f",
        "ound"
      ],
      [
        "f",
        "ace"
      ],
      [
        "f",
        "right"
      ],
      [
        "f",
        "low"
      ],
      [
        "f",
        "its"
      ],
      [
        "f",
        "etch"
      ],
      [
        "f",
        "olded"
      ],
      [
        "f",
        "anc"
      ],
      [
        "f",
        "illed"
      ],
      [
        "g",
        "ly"
      ],
      [
        "g",
        "hed"
      ],
      [
        "g",
        "ular"
      ],
      [
        "h",
        "im"
      ],
      [
        "h",
        "ist"
      ],
      [
        "h",
        "urried"
      ],
      [
        "i",
        "er"
      ],
      [
        "i",
        "li"
      ],
      [
        "i",
        "ver"
      ],
      [
        "i",
        "pp"
      ],
      [
        "i",
        "ving"
      ],
      [
        "i",
        "pped"
      ],
      [
        "j",
        "ury"
      ],
      [
        "j",
        "ump"
      ],
      [
        "k",
        "n"
      ],
      [
        "k",
        "es"
      ],
      [
        "k",
        "ind"
      ],
      [
        "k",
        "ily"
      ],
      [
        "l",
        "id"
      ],
      [
        "l",
        "ater"
      ],
      [
        "m",
        "or"
      ],
      [
        "m",
        "akes"
      ],
      [
        "m",
        "aking"
      ],
      [
        "m",
        "ushroom"
      ],
      [
        "m",
        "oved"
      ],
      [
        "m",
        "mer"
      ],
      [
        "m",
        "itted"
      ],
      [
        "n",
        "at"
      ],
      [
        "n",
        "es"
      ],
      [
        "n",
        "ur"
      ],
      [
        "n",
        "am"
      ],
      [
        "o",
        "ver"
      ],
      [
        "o",
        "be"
      ],
      [
        "o",
        "cc"
      ],
      [
        "o",
        "gra"
      ],
      [
        "p",
        "r"
      ],
      [
        "p",
        "ot"
      ],
      [
        "p",
        "ers"
      ],
      [
        "p",
        "ast"
      ],
      [
        "p",
        "ick"
      ],
      [
        "p",
        "aws"
      ],
      [
        "p",
        "ute"
      ],
      [
        "p",
        "lease"
      ],
      [
        "p",
        "resent"
      ],
      [
        "p",
        "ainting"
      ],
      [
        "r",
        "ith"
      ],
      [
        "r",
        "ab"
      ],
      [
        "r",
        "am"
      ],
      [
        "r",
        "ance"
      ],
      [
        "r",
        "up"
      ],
      [
        "s",
        "m"
      ],
      [
        "s",
        "n"
      ],
      [
        "s",
        "al"
      ],
      [
        "s",
        "ort"
      ],
      [
        "s",
        "ure"
      ],
      [
        "s",
        "old"
      ],
      [
        "s",
        "ently"
      ],
      [
        "s",
        "ult"
      ],
      [
        "s",
        "urpr"
      ],
      [
        "s",
        "ilence"
      ],
      [
        "t",
        "r"
      ],
      [
        "t",
        "w"
      ],
      [
        "t",
        "se"
      ],
      [
        "t",
        "ly"
      ],
      [
        "t",
        "ill"
      ],
      [
        "t",
        "een"
      ],
      [
        "t",
        "ast"
      ],
      [
        "t",
        "ling"
      ],
      [
        "t",
        "ail"
      ],
      [
        "t",
        "emper"
      ],
      [
        "t",
        "ip"
      ],
      [
        "t",
        "rodu"
      ],
      [
        "u",
        "ce"
      ],
      [
        "u",
        "ally"
      ],
      [
        "u",
        "ded"
      ],
      [
        "v",
        "o"
      ],
      [
        "v",
        "ent"
      ],
      [
        "v",
        "iol"
      ],
      [
        "w",
        "ere"
      ],
      [
        "w",
        "ant"
      ],
      [
        "w",
        "indow"
      ],
      [
        "w",
        "atch"
      ],
      [
        "y",
        "st"
      ],
      [
        "z",
        "e"
      ],
      [
        "Ġ",
        "ve"
      ],
      [
        "Ġ",
        "ill"
      ],
      [
        "Ġ",
        "Now"
      ],
      [
        "Ġ",
        "11"
      ],
      [
        "Ġt",
        "ou"
      ],
      [
        "Ġt",
        "all"
      ],
      [
        "Ġt",
        "reat"
      ],
      [
        "Ġt",
        "urtle"
      ],
      [
        "Ġt",
        "akes"
      ],
      [
        "Ġt",
        "ale"
      ],
      [
        "Ġa",
        "x"
      ],
      [
        "Ġa",
        "ct"
      ],
      [
        "Ġa",
        "go"
      ],
      [
        "Ġs",
        "e"
      ],
      [
        "Ġs",
        "k"
      ],
      [
        "Ġs",
        "er"
      ],
      [
        "Ġs",
        "en"
      ],
      [
        "Ġs",
        "ell"
      ],
      [
        "Ġs",
        "ending"
      ],
      [
        "in",
        "ing"
      ],
      [
        "in",
        "es"
      ],
      [
        "in",
        "ary"
      ],
      [
        "ou",
        "red"
      ],
      [
        "Ġw",
        "et"
      ],
      [
        "Ġw",
        "ink"
      ],
      [
        "Ġw",
        "om"
      ],
      [
        "Ġw",
        "ag"
      ],
      [
        "Ġw",
        "ide"
      ],
      [
        "Ġw",
        "ine"
      ],
      [
        "Ġw",
        "eak"
      ],
      [
        "Ġw",
        "retched"
      ],
      [
        "it",
        "ation"
      ],
      [
        "it",
        "ions"
      ],
      [
        "it",
        "ated"
      ],
      [
        "nd",
        "o"
      ],
      [
        "er",
        "or"
      ],
      [
        "er",
        "able"
      ],
      [
        "er",
        "ret"
      ],
      [
        "er",
        "ci"
      ],
      [
        "Ġo",
        "cc"
      ],
      [
        "âĢľ",
        "âĢĻ"
      ],
      [
        "ha",
        "lf"
      ],
      [
        "ha",
        "pp"
      ],
      [
        "ha",
        "ven"
      ],
      [
        "ha",
        "ppy"
      ],
      [
        "ha",
        "med"
      ],
      [
        "re",
        "me"
      ],
      [
        "re",
        "ak"
      ],
      [
        "Ġb",
        "ad"
      ],
      [
        "Ġb",
        "ir"
      ],
      [
        "Ġb",
        "ite"
      ],
      [
        "Ġb",
        "ody"
      ],
      [
        "Ġb",
        "ark"
      ],
      [
        "Ġb",
        "lew"
      ],
      [
        "Ġb",
        "reak"
      ],
      [
        "Ġto",
        "nes"
      ],
      [
        "âĢĻ",
        "âĢĶ"
      ],
      [
        "Ġc",
        "ir"
      ],
      [
        "Ġc",
        "au"
      ],
      [
        "Ġc",
        "art"
      ],
      [
        "Ġc",
        "up"
      ],
      [
        "Ġc",
        "ool"
      ],
      [
        "Ġc",
        "oup"
      ],
      [
        "Ġc",
        "oll"
      ],
      [
        "Ġc",
        "ond"
      ],
      [
        "Ġc",
        "rying"
      ],
      [
        "Ġc",
        "aused"
      ],
      [
        "Ġc",
        "rims"
      ],
      [
        "Ġc",
        "autiously"
      ],
      [
        "en",
        "g"
      ],
      [
        "en",
        "ing"
      ],
      [
        "en",
        "ough"
      ],
      [
        "en",
        "ny"
      ],
      [
        "ll",
        "y"
      ],
      [
        "ll",
        "ing"
      ],
      [
        "ll",
        "ent"
      ],
      [
        "Ġm",
        "a"
      ],
      [
        "Ġm",
        "on"
      ],
      [
        "Ġm",
        "ere"
      ],
      [
        "Ġm",
        "il"
      ],
      [
        "Ġm",
        "ess"
      ],
      [
        "Ġm",
        "od"
      ],
      [
        "Ġm",
        "ile"
      ],
      [
        "Ġm",
        "eek"
      ],
      [
        "Ġm",
        "ourn"
      ],
      [
        "Ġm",
        "istake"
      ],
      [
        "Ġm",
        "ixed"
      ],
      [
        "ce",
        "llent"
      ],
      [
        "Ġl",
        "aw"
      ],
      [
        "Ġl",
        "ine"
      ],
      [
        "Ġl",
        "aid"
      ],
      [
        "Ġl",
        "ap"
      ],
      [
        "Ġl",
        "az"
      ],
      [
        "Ġd",
        "anc"
      ],
      [
        "Ġd",
        "igging"
      ],
      [
        "Ġd",
        "ais"
      ],
      [
        "on",
        "ce"
      ],
      [
        "on",
        "qu"
      ],
      [
        "Ġf",
        "it"
      ],
      [
        "Ġf",
        "if"
      ],
      [
        "Ġf",
        "am"
      ],
      [
        "Ġf",
        "ather"
      ],
      [
        "Ġf",
        "ine"
      ],
      [
        "Ġf",
        "oun"
      ],
      [
        "Ġf",
        "av"
      ],
      [
        "Ġf",
        "ash"
      ],
      [
        "Ġf",
        "aint"
      ],
      [
        "Ġsa",
        "nd"
      ],
      [
        "Ġsa",
        "lt"
      ],
      [
        "Ġsa",
        "ng"
      ],
      [
        "Ġsa",
        "uce"
      ],
      [
        "as",
        "ion"
      ],
      [
        "as",
        "hed"
      ],
      [
        "is",
        "it"
      ],
      [
        "is",
        "es"
      ],
      [
        "is",
        "able"
      ],
      [
        "Ġhe",
        "art"
      ],
      [
        "ow",
        "er"
      ],
      [
        "ar",
        "is"
      ],
      [
        "ar",
        "row"
      ],
      [
        "le",
        "gged"
      ],
      [
        "le",
        "aves"
      ],
      [
        "or",
        "ter"
      ],
      [
        "or",
        "th"
      ],
      [
        "or",
        "oughly"
      ],
      [
        "or",
        "car"
      ],
      [
        "li",
        "ves"
      ],
      [
        "li",
        "ving"
      ],
      [
        "Ġin",
        "k"
      ],
      [
        "Ġin",
        "trodu"
      ],
      [
        "at",
        "ching"
      ],
      [
        "Ġg",
        "idd"
      ],
      [
        "Ġg",
        "oose"
      ],
      [
        "Ġg",
        "iving"
      ],
      [
        "Ġn",
        "or"
      ],
      [
        "Ġn",
        "arrow"
      ],
      [
        "se",
        "c"
      ],
      [
        "se",
        "e"
      ],
      [
        "se",
        "mb"
      ],
      [
        "Ġbe",
        "ar"
      ],
      [
        "Ġbe",
        "sid"
      ],
      [
        "Ġbe",
        "asts"
      ],
      [
        "an",
        "ing"
      ],
      [
        "an",
        "ter"
      ],
      [
        "an",
        "ting"
      ],
      [
        "an",
        "ches"
      ],
      [
        "an",
        "ced"
      ],
      [
        "ĠA",
        "ll"
      ],
      [
        "Ġp",
        "at"
      ],
      [
        "Ġp",
        "ur"
      ],
      [
        "Ġp",
        "arch"
      ],
      [
        "Ġp",
        "ull"
      ],
      [
        "Ġp",
        "ause"
      ],
      [
        "Ġp",
        "atiently"
      ],
      [
        "Ġp",
        "encil"
      ],
      [
        "Ġp",
        "anting"
      ],
      [
        "ot",
        "ting"
      ],
      [
        "ot",
        "ic"
      ],
      [
        "Ġth",
        "ro"
      ],
      [
        "Ġth",
        "ous"
      ],
      [
        "Ġth",
        "oroughly"
      ],
      [
        "ĠI",
        "I"
      ],
      [
        "ĠI",
        "V"
[...]
